node {
  name: "input"
  op: "Placeholder"
  attr {
    key: "dtype"
    value {
      type: DT_FLOAT
    }
  }
  attr {
    key: "shape"
    value {
      shape {
        dim {
          size: -1
        }
        dim {
          size: 784
        }
      }
    }
  }
}
node {
  name: "Variable"
  op: "Const"
  attr {
    key: "dtype"
    value {
      type: DT_FLOAT
    }
  }
  attr {
    key: "value"
    value {
      tensor {
        dtype: DT_FLOAT
        tensor_shape {
          dim {
            size: 784
          }
          dim {
            size: 256
          }
        }
        tensor_content: "\216\247\270?)\274k\276\274%\355>\255\336\360\277\271\353H\277e\230e>\\R\"\300.\245\266?\245\314k\277\355?\205?\277P\200\277\010\362\263?c&\r\300&FH@\373\244\256\277_\251C\277\212\271\017\276a\033\316=:6\336?\376\244\340\276\250\263\224>\026\316\200>\210\261\032\3001\266\261\277b\304\r\277\221Q\251>\206\246\034@4$5?\034\330\251\276(]\207\276\221X\352\275\267\345\331?\320\307\314\277)\"w\277\204\312c?\305\265\273\276\373\032i?eN\254\277\241\3753@D\312\273\275\271y\210\277\307\243\323\277\270\000\022?E?\221?5(\223\277\021:\236\277Jzn\276\305\365\241\274\tIN?n\227\336\277?\354\030>\210\226;?\\IM>q\270\007\276\0239\205?\265\357\031>\266_O?\226\003\231\277\223F\373\276\354\275\242\276\'2l>\261\320\345=\212z\340?H\344\250>7A\240>I\320\324\276\007T\t\277\3446\n?\t\217\315\276\312\025\361\276U\366G?\005\312\030?G\353\260?\311VT\277\310\347\263?\344H\267\277i\361\033?\245\333\305\277:^\032?1M\262?l\004D\277\251\252 \277\246b#?\340\311\217?\375\273?\277\251<&\276I\2239\276]\322Q\277\270\3363\277\302TD?1\\P\276\356\007\270\277=\370\265>\342\031w\277=\262\031?\312\361\316\277t\255\310>\303_{\277\331\0301\277;+\023\277\332\034\010\277XX\301?\211\264\256>\301\021\351?\010\255-?~+\013\300\330]8\277\332\373\204\276z5\031?L\032\345\275:-\232??I\327>\340\303e\276\257\301\236>\330\276\033?\317cM>\311\t\257>\362Q\357\277u\236\331\275\225\006\027?\330h\322\276\373\255\347>k\240\310\276\001\010\026?L\335\324\276\315^\017>o\317\217?TC\264;j\273\244?\331\027k\277\266/\006?\017-\341\277\2317\261?\333\311\230?\362\010\257\277\242qn?&\023&\277V\203\003\277\313?|\277\3704\223\277R\030,@\201\261\023>\252\246n>\032\336!\277\222\255\027\300\260\333\206?o\204\270>q\355:>\'\336\010\277!\017\246?\237K&?\251[\027\277\214\013{?X0\014?\031\224\241\277G\245\305\2779\2217\277m\334\n@\220\223\244?\310\004\331\275\224}\223\277\372W\214\275\337.I?3d,\276\371\211\370>>\nx\276*S\336?7dW\276\305\026\272>2v\345>\275\365i\277ng\216\275\256\363`\2778\207\\?v\215\007\277<\201\315\277\341\257\265\277\215\2024\276\257\214X\277\030\354\210\276\327\'\217??\324\236?\341B\232\276\367\256Q\277\260\311}>Pc\'\2757y\216>\266\364\201?R`Q\277\220{\244?\365|\035\277l,\226\277\245\333t?<\344)?\257@\027\277B\245\226?\3236N\2757\350<@\365\211@>\330\222U\275\320\357\352>\242\221\271=\320.\266\277\233\331\226\276\301\3649\277\005\013W\2777\330\374>\234\213\216\276\'l\205?\245\r\035\277?dG\277]vo?4\177\007\277)l\024@\220\243\230=4nq\277\035\363\277?\350\374\276\277\326-L>\367\376\376>\2563\246\276\267\357\230>\346\020\007@\320+!?\004\004\327?vA\274\277\223\205\016@\204\325\323\276\016\371\325\276v\341\017\277`wL\277[\036\360>~\205X?,)^?\0137\234\277\013\313\210?\227\025\363\276\233\'\230?\027\"#>^\315)\277\003\263\340<jm\202\277~\267\n@=\0350\300q\244\235?\337\020X?\320\272x?\377\233%\277\225\376\376\276\021\375\305\277\003\224\240>\317\030k\277\347\004\227>\205x_=\312\022\226\275\256\341\002\277q\203.?\343\327{>\017GP\277(\235\035\277)PA?\3479\030\277\223r\003>xZh>\004\356\242?\330\016\032\277uI\037\276\351\202#>\227\334\252>\034x\t@.\266a\276\344\351\004\277\\4\317>>\334\235?\327\001d?.oD\275\235\356\204?\265\014\307=\3451\354>\372r\214>\227n\235?\265\327\254\276)\262+?5\266\270?\322\321\031?\376;\002\277Z\325\004?\253\226l>Z\275\370=\034\307\205>\216\215o\277#gb\274\360Z\273>\243\205=?6\372\020>\247H\352=D\234)\276#N\205?&\356\016\277\333\000n?\335\374\006\273\230\216\"?o\211\020=\245\252\203\276u\227\235\275\261\'\262\274\227\366&\274\001\360\004\300\364\216\'?m\354??\262\350\017\277\266\304\313\275\327\322\337=\026\371\265?\307\262Y\275r\324\216\277\227\027\252?\017\337\201\277\300U\377>\023\013\215\277/N\214?\\\330\331\277\277]\236?\303\211\223=\231\250\022\275\200\266\346\276j?\\?\213\261F>R\212\346\276o\254\242\277H.\024\277x 5?\0143\372;w\325\310\276\200e\223?\310,\036\276\244(\013\277\351\323_?\240\260\224>\353\251/=\306/\243\277\007\231\331\276\371\211\022\277o\340\276?K\242\003\300\337\355\216?\211!\245\277\222\326\322\275y0X?\244d\242\277\232\353\240\276T_e?\216\032&@&\227F?\r\216\363?\342\201\350\274o\325\350\277:\242t\276\264\2273\276\355i\362\273\374\312/>\254\315\225\276q\353\362\276\254\311\t>\364\362\203\277\315\370\272?\365\0345\277\223\221\003?\032\023_?Z]\252\276\325}\227\276\300hk?\210D\231\277\262\007\361\275\337%\267=\346m\203\277\342A\312\277n@\276=\242\r\">/\3645>u\302\334\277\322_\205\276\243\351\313?\263\310\311\277w\216\264\277\356\332F?\334\205\267\2770\363\354?\247\003\n\277\024D\347\277\245\006\032\277\004-\016\300\205\323\t@w\3573\276\333\005\344\276\307\022E?g\026G\300-\rB\277(\330\\?\031I\035?\253\2421@\237\323m?\273\215\321?L\314\277\277\010\372D\276=\345\253\276\335\327\340\277\350\230\245?\234\245\330>\223\023\360\276\002\242H\277n\251\213>\r\236z?\321\202\021\300S0\264\277\350\374\031?c\300\002@\014\236\213>EC\000?Iw\244\277\242\032\020>P\321\331?\366\022|\277\230H\033?AT\004?\223\341\005>\002\026P\277\260\260e\276\036\\\030>I\3525\277\235\302\220?9M\233\276/,D?\230\326\331\276Ir\252\277\311\352\300\277n\034E?\026\003\270\276*\365\224>s{\306\277\363\257\003\276+\251\214\277\311\312\t?\014s5?\331ob\275\377s\271\277%\030(=\010:U\277G\006\233\277\205\377\267>w\331=?R\000Z\277\313\335\200>5D\227?\317\364\256\277vt\363?\013\014\211=$\225\030\277\337\353\221\277\005\021\021>\032\250|\277\261\274\255>\347\321c<g\314\013?G\245\010@gD!\277\313\256\024\277e6\032\277\312\277*>\334\210\314\277)%r\2772\216\014\277*\273C>o\367\004?\315\300\260\277\316\225U?\333z\r\277\222A\232>B5\251?\360L\206\277r\261\013@_\335T?\300\\n\277S\264w=\343\254d\277\t\255\247>\200\235\366\277\220C\014?\030\nz>\030\246\\?\271\036\255\276\2545\334=\253\204\033?\325\317g\276\312\272\234\275\302bQ>!\306\032\277j\277\377><\217\317>\306\207!\277\223f\242?Q\310\031?O\253\302\276\035\276\004?\022\220\221?K\304\307>\316l\273\277\006\350A\277\246U\341?\235_k\277Y\241\266\277\354_\240>L\314E\300F\n\306?\231\247\273\277\t\251\026?\323D!\277J\206\205\277\017\002&>\006\020\034\277\3377~>\000]\241\276\3159\244\276oZ\206?\240\352-?\213\215\037?\317<F\277\013\033\241?,\013F\277\314\306\206\277J\303G?y;\231?\254S\365\275\203\'v>\227*\222>\246\377A>\305e\223\276\330V,>\'\006\301\277G\323\003@\\F\230?mQ\211\276\311H\337\277\243\326@?\003Y\213=%tB\277zv\230\273a_ ?\352\304\034?d\317\340>\324\332\207?\333\343\376\276\231\210\021\277\002\365.\276\263a\371\276P\013\303\277O\002v\276R\037\210\276\324sr\276}\253\r\2767\250_\276;\013t>.\355\341\277\373\263\256\277,B\214?\024\023\311\274\360\013\021\276b\353\271\275\027\305\202?\343O\243?\3509\354\277\031\241#?\200]2<i?\005\277K\246\314?\345\325\035?\272\362\357\276\022j-?%V\001@\025AX\277\353e\366>\002\214^>\240c\365\276\345\304`\275\211.\213?r\004(\277\304\270R?\332\037\022@\312\360:\276X\206\321\276\275\2600?w\330\214\277\245\037\"\300\211\267\n\300\264I\213\276&\312\336?\212\272\271\277\237\224\022\277\222\365\004\277\270L\030\277{\023n\276\2344\226\276\301\271d\277JPM>@2\022\277\345j\245\277\202\\\230>\n\231\014?\317?+\276\240\307\202?\343\350>\277\252\303\240?|\230a\276cmQ>\253K\310\276\344\247\337\277\206]\246\277\3630??\264\207S>\351,\323\277\220_)\300T\'\206>\000D\016\277B\211\013\2777Z\241?\032i\231\276q<\237?\300]\034?\232\017\006?\306O\366=2\232\002>=\251\240>\311P\341?.\374\222?\324\307G?\276\255\246\277\1773\310\276 \304\222\276\315O\256?\354\376\300\2768\010\261?\240sZ?t\246b?i;o>\361,\222\276\020\332\261\277~6\013?\270v\021\277\205$\201\277\346\334\214?Ye\243\277\372w\252\277K\324`\275\212\270\250\277)\231\275\276V^\204\277\217K\274\276\306\357\202\276Po\253\276L\235\317?\350#t\2776\276\251>g\355\317>\323\356g?w\024\031\276\037\231\337>\267\253\205>\'\277\326?(\243J\277BF\034\277\004\352}?\351\213\243?$\215\347>\\~6\277s\3064\274\356R\231\276DF\254>\373\r\003\276\327\262\000\276\2464\272?p\334\204\277y\275\205?\213m\257=&\222j\277\246J\230?\335\213T\277a\2765?\205\371\025\277#\017\214?\025\017,>\310y\225=\274_r?1\325v\277\253\246\264\276\261\032x\276\212\036_\275\2041\270>\377\316g\277Zp\001?\372\230\000?CK\261\277\341\307\026\277=\360\027?#\321\266\277\2178\036?\353\267\342?&wY\277\230\240\005\277\237\t\361\276\351o^\276K\025\262\277<B\036\277s\270\035=a\322\224\277\217\333\200\277\2125x?\324\007\265\277\263\246a?\366$\304?;\254\220>g%\326?\371\001B?\247M\210?/6e?\335\276\243\277\270\207\034\300\312\262\355>#\372n?\240nr\277\215\361\322=\332\265\000\300\324\213%@~-\010\277\237\317\030?e\370\212\277\0350\241\277\275\n\220\276\260\t\375\275N0\013>\200o\013\276\343\311\246\275\303\262Q?\252g\365?\301\343\207?\355\376q?hD\220>\203#\257?6\\\241?u\334\251\276\374\020\002\277[Z\006\300\267\265\027>\314\321\243?\276\223-\277\252\202\205=23\272\277\321;\001\277\273a\316>\244\355\210\277\315\371\240?\213p%?KV\026\276yx\224>\037\331a\277\334\217\330\274\351\376\260\277\217\273:\277\325\223a?\321\275\010\300\253\221\344\274\235p\244\275\020i\257\277^\252_\277\355l:=\261\325\022?V\273\245\276\353\372\034\277D%\340\276\260\216\253\276V\312\007\277X+\032\277&\263r>\300K\337>\232\021\351>\370F\024\300\360P\371\277J1\217\277\n\004\224\2770\331y\277\200l(?\035\332S?i\342\346>\226\202Y>\343o\302\277\244\037\362\276q\032\023?\314M\t=\216&0\277\327Y\256?KP\020\276\201\336\016\277:&\356?\314\223\267?\220!\355\275\364\324]\277\327c\313?\231\016b\277\317B\227?\324[\325>{Tf=r\276<?\366\366\274>\333\356\325>\273y\347?\206\006\243\276\214\005\020\277\3658\364?dv\230\277\034\356\t@G\210\314?\316\360\202\277O&\260\276C\200*\277\243\332e?SdY\276X\364\006\276K]\350\276,\306\016<\213\204\376\276d\023\262?\017!t\277\032J\003?\036qQ>R*<\277k\223\243\277\353N\327>\264\3755\277\327D\250\277\271\341\211\276\330_y\276\260w\343\276\035\262W?\024Z\223>\321&\247?\034@\304\277\000F\222?\265\263->Z\022\261?\037\367\031\277\221D\275>\332d\335?\2150\241?\205z\225?\013\005p\277\311\201!\276S\365\360\277\365\017D>\322\2436\277\270\016\300>\000g\243>\355\207\221\277n\027\207?\375\344\226\276\341\343\316\277\036\371\233?\314w\030\276\023\267\215?`K{>u\202\271\277A\321\214?\r\362f>;\006g?\320\3478\300d\177\265\277\263\330@>F\373\013@Fb\350\276\352\215\253?aK\222>\007\004\371>\257N\017\300f\\\207>\004\377\t\277>\037\272?t\'\331\277hp\217>\277^(?\372\022\276={3\214=\217\210v\277H/\001>\001:\223?\025\324q\277\344,>>\203\350\214\276\250\221\213\276p\340\212?\302,\313>-\312L>_H\005?~\216\355>\347S8\276\030\344u?\240*\300\276\315\014\311\275\345EE?\254_\261?\245-\021\277\234\"\361\276\222\200\214\274\352\"j\276\261/\026>\356\214\027?\243\346\006\277\353\231\232>\242\340h@B$\311?\317f\037?\035[\004\300\025\276\301?Z\231\031?\323o^=\nq\240=\3524\005@&\356\301\274\030 4\276e\233\334?\225\247\221\276N)\306\276L\210\243\276\366\t\212\277nD\227\277>Ix\277\206\311\353>\300\364\317?\345\256\221?\025\257\216?\033\262\365\277\037\347V=\r\237\001\276\321<\\?c\254v\277\360\273P\277b\212\n\275\316\037\224>\033`\t\277\303X\343?\301Q\004\300/z\240?8\210r\276\033!\332?\"\337\252\275\231\344\023?\306\327\026\277\002\016\203?\321u\377\277D\360a\277\347AT\277,\371O?\017-\277\276\032\310\006?\303a\271\276\r\250\334\276\303\322d;\200ho?=\320k?W\225\351\2777\265\234>3\005\260\275\221c\254=\005\260\242:t\350\263?^%\"=\372\356\027\300Y\235\220={\342\326\2771h\232?kD\n\277\275\313\263>\221$\272>\251\223\313\277\240\324\242>I\t\342\276\034\002c\277\274\373g\277\252\336\010\277\025\242U?\236\321\220=\321\216\351>\224\356r?\266\343\035@O\254L\276 \350J?\321v\200>m&\213=o\320\220\277\236x\376>\tB \277=\013\303\277\204\301\216\275Ak1?y\030\264?*\301\241\277\3320\275?\250\225\206\274d\206\345\276 SF?\t\346\177\277\221\330\210>\225\313\033>D}t\276\252\343\273=\021\306\337>*_-?\253\245r\276\017\310\006@\"\241\212\276\231\233\204>\020\244\232?\347\364\247\277v>\316>\016R\256\277Y]s=<\306=\276\304\246v?\264\266\320<\222\314Q\277C\017%?\201S\365?\212\241\342>&\333\204?\2172\226>b3X>\216\223$\300t\313Q\276q\211\221?a\0243>\222\016\034>Ir\023?\243\347\247\277\222\353\313?\372\262\025>~\005{\276%\205\273?\371\250\263>\366B\032?\256\302\243\276\271\361t\277\200\263h\276\241\'\332\275(\252*\277\367\250B\277\023\007\034?\377F2\277\200\272\302\276-\364&\277\240\276\253\277?`\n?\342I\221?\246\003\006>\300\261/?z\341[\277t\334\211?\327Zi?\'\362=\277X1\351\276<S7?\3649\027\277wY\244?W\263\315>\333p\035?\032>j?\246,\355>{\227n>\326hm?m\204\017?\251\225\t\277\205\010\361?\354\236:\277\270\301t\275\220\221\301\277\205\234\317\276/X\374\277\233\316\200\277\014\243\307>\243u\003\277it=?$\2131?\025\023\320?\322\377\312>\t\331\324?\000>R\277YV3\277V\326\234?*\352\214\277\226\366\276\277\202\365\237?*}\353?!S\260>\2018o?\023\312,@\347\361H??p\005\2762\231\013?S`\231?B\332\224>\362\037B?`\267l?\240\031\246>iO\220?i\220?>\255\031\033?_\263\205?[\351~\277\327\205\001?\226\225\251?L\\\264>N\035n\277@\265\327\275\014v\033\300[\326w?O\033\322>\033\373S\277\035s\265>\006\226z?\334\200\332\277D! \300\325\244\340?\257u\205\277\022-\333>\001;\346\276\"\306\312>1Tb?\n\371\260?m\372\032\275w\337\273>\231/\237?W\206\254?uF\207\277L>\351\276ag|\277\301\323\310\276\224.\201\277v\351\256?\357\232m?G\010\313\276\034\217\212\277\302T\332?\004,%\2757<F\277M-\262\277\007\000\301\276\327\330\224\277\340\3547\277E$N?O\362\010\2759\016\000@\006\034\270\276\215\027\266\277P\037\200?u\026}>\032\227z>f\306\362\276C\032\234\276\025b\356\275\2636H\277\263\264]\276\014\310\244?\rE\344\276u\217\227>\364x\236\277Hc\202?\262\213\254>(}I?\022\232\271?\262\212\033\276\225\317\212?\341\026\331\277u\212V>\250\327\223>\351q4?,\321\004\277\202\2336\277\305\264\267?\267\271\274>\343_\207?E\256\'\277\352\2152>Z #\274\265\000\212\277\004\'K?\331\035\n\277@\234:\277\213x\017\300\2223\322\277\242\r\200\276\265\026_?m\014\333?\306S\211> \035\373<\320\250:\277G~\340?\334\250\'?\375\346D\277\315\343]\277_7\314?#\250\314\276L\030\373\276\342E\231\277{3\t?f\236\n\300\362\024I>av\003?\211\213\363\275\247u\215?\257\231\372>\021C\273?:\306\243\277\267\215*?\203O\233\2775\217\251?\373b\276\277\311\037N\277\"\371N\277\n\204\207?\351\317(\276\273\0218@nO\232\277\267r7?/\3131?wk\254\276\375\014\344\276N1\324\277\340SV\276$(?>\252\231\234>\351N\006\277Q\360\377\276\022\217;\276\304;d>n\020\014\300s\207^?\326\310&\276Eh.?\302p\340\273\001\300\025\277\036\341\003\276Hg\272=b\375\347\276b\313m\277:e\004?\025\222\027\277\325\300O?4\227I?\307\255\220\277Z\300\255\276\227\231\263>\257E\241\277\357\021\222\277\231z\267\277c\247\330\275@\306Q?\346\234=>=TN\277\246.\375\275\337\312\\\276j\202\356?\241\032X\277+\343\010\3009\002\232\277\230(\020\277\315c\271?\026!{\277\256\333!\277\365\274\305>\177\321F\277^|\030?Cgi?l\255\210?\314\203\266\276\010\372[\277\001\347\245>a\3734>\364\265\207\277\215&\357?\331YO\275\267\351\236?\213\304\210?\336\367\257?\n\232\324\277w[\367\276\253|\007@\213\216\202\276\274([\275_FZ\276\336s\226?0q_?x\332\262?\311\273\235\277\272\320\235\277\240\217\304\277\362n\345\277\036a\277\277Y\341\235>\265\177\361=\261\032\320\277d\252\017=4i\370>RW&\277`\215^\277\013L\006\277J\2678?\034\354\261\276\351\321\215\2765?\304\277P\242\367?\207\250\016@\005\271Z\277v\240\374?\256W\324>\314\251\234\277\211\023z?x\263k\277~4z\275\361I\220>\212\3600\277\024\"\003>\252/q\276\023\324\021\274\"\252\'?\216X\261>\325\223\031?\371\250\311?\316\236p?\017\326\224\277\272\265d\2777k\345\277m\313\246?\245\265&;$\3073>\3703\362>r\010\200\276\331T\257?\214\003 @c\352\204\276n\022\n\277_(\261\276e-\257\277\362f)>\363\354\364?\n\244\266\277e\006\235\277\303;\347>?\372\245\277.T\262\276\210b??\023O\330\276\365\365\337\277\204D,?i!\275\276X\276\270?\370\357%\277\246\321s>\275\341\004@*\256Q\2776,\250>\001h\244>\nU\206<\374\2351\277\267{\n?\004\010\253\2772J\n?\0170\243\277\253\226\254\277E\332\235?\310\250\254?ir\264?4\307)\276\367\243\230\276\035\203\337\2767\270\366\277\220\351\374\2778\3214\277q\226\350>I\364\231?\211/-?%#\216?m5\356\277$\221\303\276q\r[?\260 \206?cj2\276\262\000z?\262PR\276M\302\261\276\265M\367= e4?\rg\302\276\302\2340@\246\360E?AM\346>\261\332T\277\222\233\263?\211\305\325\276\0278\315\277y\327\366\277U>\303?\223!\005?mk\014@\254J)\275^J\023\276\210\352x>~k\371=\343\335E\275F(\005?fK\214=\255\304\330>\213\231V?\331\022\376\276|6{?\307\206\214?\251\036\313\277i\027 ?\026\304F?d1\327?\021\355\372>d\227\021@\316V/\277\331\201V\2773\265\262=\257)u?S^\r\277\221\233\014\277\301m\216\277m\034\327\277\35016?\314\256\336\2768\026)?\362\305`\277\277|>?\"\021\236\276!\246\253\271u\024\312\276\377\345\330=\313^\311?@\006\014?\202\341\027@eex>\007\310\004\276u\340\230\276\277n\251\276\005\032\220>98\310\276\312%x?\327w\010\300\351\233\237>\"?p\277(\270\026\277\247\007\322>>U\205\277y\303\360\2753\337\024?\"#\020?\367f\202\2772\244G>\367\345\005\277\277\240\031\277\245A\202?\253\226\244?k\374E\276Fm\272?S\274+?mx\016\277\252zb\276d\313c>\237\327\354\277\302E\373>\200z\257\276AN\t?O\370\325\275\376\030-?\373\225s\277\232\277\302?\007\255C\300\304@\277\2773\333O\277\237\rY\276X1\014?\334\360V\277\303\342\322\277\3328C\276E\024(?n\006F?\307\230e\276eQ\360\277H\266T\276\357\0009?d\327\033?\224\305\245=\333\225\344\276\035`5\277\346\016S\277\016$\326>\237~m? \270\251?\214\216)\300\217\216\206?\314\333\223\277\322\204\313\277\231k6>\201\325\361\274*y>>.\2407\275S\231\353?\370V\237\276\001Y\023\277U\357\031\277\350J\001@\260\336\261\277\030\261\364\276^y\361\277\227a\201\276\330\202\351?\275f\230=\253\311\312\277xW\025=z\003\372>Zl\003?\371\251#?V\361\354\276\252\354\325\277\215\326\010>\351@P>\366\3770?\006\034C\277\344O4\276e\020\237\277X\342b?\212\327\037?]\217\004\277\273\266T\276K\252\037@\303%p\277zi\274?M\340\025\277\227\201T\275\346\201\367>7H\206>\t\210\036\276\343\221^?\030\364\232\277h\222\227\277\013\004\000\274\370\347\271\275\254?\354>^A\261?x\227[>!\326\256?<8\314?;F\315\276\000\314\253?\020Q\006?;\177\220?\325\237t?\300\376\254?.\342\200?5XT?\361\r-?\007\356J\277S\376\274\276\372\260;?\231S\023?2m1\276\324n=@\036\332\376\276\242p\343\2766tR\277\225i\037\277\252\321B?\205s\215\277_\004\263\274j.\325>\212\2772\277!\014\033>yZ\001@\327\244\370?\271nO?\362\273\004\277\242k\206\277\re\010\277\362%\217?\335h,\277*#^\277\236O \277\355\344k>Y\375[\277*\376\353?,\'\215\2757\340\207\277d\360\276=\346\000A\274\036\250\215<<\3413?\230\212\261>\324\320S\277\302\354\023>\026X\224\277\235\313\331>of^\276\314\265\304;\207\353\340>N\327\342\276\361,\274\277\r9\005=\006\345\210>P\305\253\277\371\352:\277\265\244\016>NO\214\277^\014\353\2757|\023?7\265a\277B#\223\277uMZ\277\333?\270\275\333\327\212?\3556\024\275\226\3540\277\265\256\314>j\246d?o\t\336\276\245\321\250\277G=d\277\310-|?\363o\303>\200\264\240>\212/7?:GD>P\003\235=*\257\007\3002\234Z?\337\232\263>\234Y\217>\n\354\007?Og\215?\332\214\341?3!\340\276\305\341\202?\204\005\001>\231g\341?&\256u\277\021\r\214>\341\361\013?\202y\243\276\2728\n?t\030\233\276V\234\016@\377Q\024=\336\341\032\300!\363\212\277\t\331\225?M\206h?Lu\213\277\233\261{=~\330\344\276K\242%\277\\\223&?u\305\255\277\024\372\236?\302v\n\277\254\321\"?7\371\351\277\363<\256\277\025\210\376=\310\317\236?w\362C\277=n*\276b\307\307\277\254\320\300?\n\030\332>z#\367>\316l\220?\220\214f?\344\310\200?\272Fb?\321\355\006>2:=>3\232S?\034Z\203\277\201J\274\277Y\337\347\277\000\'\225\277\211\034\004>\000\315p>/2,?.,F\277\3425\014?`o\004\300\264\301:@#\314\206>Lj$\277GmA\300.Q\343>[\325\303?\371\246T?\001\241\025?L\333\021?b\010\265?z\316v?\316\002\003@\253\366\265>\357\264i?\0264J?\307\221\356\275\225\360\210?\352^\220?\213\2075?\313Q\003?\303_\253?\225>\350?Bx%\277\366\366\005\276l>\031>\263N2?9\371\307\274\322\000\201\277d{\307>\337\200\231\277}\364\213\277\205\010\333\276\234z\021?\357\322\363>\346\263\037?/\374E?\373|V\276\036\300\262>y<\323>\336\353\034?\217\341A?\3420\273>\020\371\346\277\030\200\217\276j\356\017\277)\330\254>\265_\306?o\344l\2770~]=\030Z\200>\263\212\260\276\330O\005\274\305\215\225?\370\026y\277\243P\241>q\307L<\027Q\326\275(v\305?\270\341\376\276\344p\363\276\261\345\'?-N\233\276\200\027\024\275\334)l\277\202a\304\277n\3222\277-\362)@^`\034\277\232\035\220\277:\310\243\277$\201\212?\346\030\371>\n\026\006>\317E\301?eI\210\277@\237;\276?\323\005\277\010\273w=\341ZW? \261\346?<bP\277\322\231\234\277RE`?h\343\323\276\254\024\230?<\014(\276\205\205\350?\027+\003\277\020\345*>\362\323\304?\214r\352<@\200\006>X\215\266?\346\231*> _\037\300\331\376\236?VJV?\370~(>\202\234I?\353#\'\277e\315\207\276\031\374\202?F\250\221\277\026\372\302>E\333\320\277T\021f\277\250l\364>\177\362\240?p\370\356\274,\324\324>\370\265\266\277\211Q\366\272P\"]>]\271-:\271\350\022\2762\007y\276\343}\036\277\251\354[<Xpj?\346\002I?c\014\310\276\304\033)\277\210s(\277\235\243~\277M\3151\274\0205\017\277\354I\244?\341\346Z?\366\322\256\277\005jz?(\254\270?\263l=\277\241\302\260>\3560\324\277\'\223\261\277\237\376<\277\271#\221?\240d\340?\233|\227>p\322C?0\311V\276y\370\004?\322\304\017\277P;\235?\325\323;?\377\365t\277\254\333\335?)\372\300\274U#-?\241\204f?\257\361\201?\324\022Q\27723\352>p<\265>\342\265\207?\365\327@\277\303\262\237?\311\340\315\276\273So\277@f\001\300\235\2067?\360\350m>\263\344\237?6\3700?\232t\n\276\362:\362=\\\220\204?\331\302\022?\0238\276>\332\372\370\277f\t\240?e\374\337> \245\307\277\022Q\304>\320^)\2773:\321\277\022\223\251\276\023\360\233\275`a\212\277\013\203\276>\337#O;\013x\034\2770\266B\277\"\3722\273\340\300\237?\326l\t?8\364R>\\j\352\275\024\021\307\277q\303\007\300X\371D>?K8?DKL\276\231:\222\277bA\302\276\272\'\377\276\254\217\036\300\361\003r==\331\244>(.p?\025,r>\2167\n?/\322\240\277\'\034J?\222\263c?\007\366\241\277WO\207\277\346m\004?\357\2062?\201T\r>\263\317\\?>\334\266\277\352p\232\277\307\205~?/1[>\003u$\277\032:2?\305\nr>\255\371P\275nb(\277\342]\301\277\210\232y\277\300\325\n\277q<t\276\337Ce>\347\236O?\361\257\254\277\235\366\223=\003\311\326\275\372\1771>\315\316V>\242]\014>\273C\244\2769b\342>}z\236?\013\231\206\277\207\016*?\220*3\277L?\354\277\260\302Z\277i\212\004\300\363VA\277\254\254\250\276\240\217\260\277\253$\355\276\262%\250?\306&C<\007d\036\274\232#\341>\333\001{\277\230y1?\037\001z\276\321*A\277\355\3402\300\317\036\235\276\261\352K>\307\246\222\276X2k\277\2241Q?*\206\020>\212\"\216\277\310]\\?t\036\201\277r\354 \277(\001\213>&\313F\277u\240\020?\037\317\017\277d\273\376\277\024\322*>\002\344\222?\340;_\276\010\213\035\277\314i\320\277\340\037\363\277\310\236\271>r\243y?\235\236#\277\357\034\236\277\201\326\n\276E\243\244>\324\253\013@\3270\344>\3406\027?=Z+\277f\365\244\276<\303h?\272\t\353\275\300\322\254?\344\275\245\277f\254\222?\211\346\022\277_\'V\277]X\260\277\353G\200\276\257\006\217?\344\214\276=\273\230\316>\334\016\322\277\252\031*@\\\334\276\276\337\210\034?U\036v?\"\226\003\277n[\374\275_:}?h\365\200=N\346\230>7$)?\325A\327={\224:\277\231E~?\322\024<\277+~\262?g\2159?\315\251\322=\034\217+\277\320\0079\277\257\343J\276\300\r^\277\000d\306>\nI\222<6?\261\277D\206P\276C\246\263\275\371\340v\277_\304\200?\2238\000@ \'\223\275\367\343\005>l\375\323\276\335^\351\276\233\004\203>jA\320\275\250\032P\277\t\r\270\277\254\025\341=DBY>\251!\263\276\256/\332?\204\362\204?\004\272<\277\265\330\250\275\221\263\317\277I\211\257\276\240A\"\2770\205\301?Q\022\'>\264s=\277\260\330\224\277\254o\310?\351\223E\277\322\243\364>\236\370\243?\003\224\024@\247\336\235\277%\253\357>2b\227?\203e\363>\327p\224?c&X=\256\200s?\235A\202>\240\230\215?\260\206\"\300Z\202\031\277\362kQ?C\275\217?\342\335\316>L\3621?nF%=\'\244\250\276\003=\010?\321\036\242\276d\322\244\277\tl\"?\313\306\234\277D\275\346?,\200\255\277?\342>\277~\227\211\276\370\373P\276\272\375\263\277[\3268\276~\n\023?7\"\202?k\374J\277\336\303\267>}\311\257?\360\370\023?Q1\314?9\r\337\277Ck\203\276\226\300\224?\036\211S?6\022\224\277z\201\346>X\377\\\277\005\210\271\277\r/o\277\206*4?\243(?\277\271\340\t\277~2\211?ro\032?\\}\226<\353\215\300?W:$>`\341\302\277\251\331F?\270\317\'?\242\244@?\275ZH\277h\227\350>\373\346z?\217Xr\276\t\222\004\277\267D%\277\030>\250\277\371U\250>\212\266\010>\307\013\336\276\315\021I>G\177:\277(\356\216\276\212\037>\276\247\001\335\276\314\354\277\276sd_\276\312\353~\277\325\010B?[\264[\277gtF\277n\252\223\275O\010\004\276\354N\027?H!\245\277\252\036s\277Y\371V\276\027\306X?x\207\274\276\215\233y\277\230\211\211?F,m==@9?\005Z\277?k\265\252=\242x\027\300D\334\336\276\271Q\317>7\334\345\277b\222\243\277rQh\276\366w\007\277\246\006\027\275\227\000\266>kd\022>\331\337\300?\024\200\033\277\246.\026?\334g\304\276\362\262\265>\235h\372\276Z\352\024>~?\343>\315u\n\277A0\226>G1\356=\250\177\017\277\271`\204=\\\335\215\275\350\001\024\277\021Yx>\214\232!?\231>\207?\277H3?\342\313\202\2730mc\276\307\270-\2760\307\212\277\226w\246\276\325\276\340>\205\177\304\277\310f-\274\223\345\207>\335\316\004\275\2521\032?\001\317!\277\351\347\230?\024\360}?\276\222\031?\241\260@>\025X\255?\'\274\216\277\224w&?zX\017\277|\337\014?>\032\317\277\232\306\305?\242\276\232?\225\302\305\277\033F\223?R4\237>\256\014\364>\260i\307\277\206\334t\275\233e\225?\317\034\255\277q/\201\276\212Z8\277g\324\250\276\2230[\277\376\001\327>\352\300r?\340[\n@cY@@\302\357\r>Z\353\342\274\354\364\216>_\245\376>:>\357>\227\243\253\277\206\241\273?\233O1?\253\341\252>\325U;>\371j\235>\003\251\264?QA:<\204\t??V\305A\27726\017\277k4\257\277\250y\002>5!\205\277J\213]?\324\007o\277_\002\243>\362\331%\277\177D\202?~\320\005\2778\305\247> \'\255\277\200\363\252\277\'\371e?\205\226\343\276Rz\031\277\204\340\271?\026\302\014?c\022\006\277Y8\227\276\033V\"\276\235\365D?J\234\271>cL4\277\214@\n?\034\'e?\004\316W>J \037\300\263\333\304?\'\242/?\325\217X\275kC\212>\220\020\262\277\001\277u?2\377\266?k\260\210=~\261\313\277s\257\232?\023\307\024\275\364]&\277J\375\324\274K\364\247>\313P >\327\314\206?q\202;\277\234\330\006>\330\220\261\277\020\332\335>\'\246j>\000.0\277&\317\205\276\364a\327>\361\213\021\277d\333O\276`\2006\273\'\361\204>\210\025\246\277,G\262?\014`}?6\346\330>\253<\010?7\026I\277\037-<\277\216\002\023\300*]\234>v\n7?\206\264\352\276.r\255\277\247u/\300|p\374>\013^\251=\014\253\300?dRD\276\2602\037?OY\206?\270\213B?b\366\202?\3574\256\276\206\363x\276\366\255 \277\351\3723=\213\205\331\277\332O\337\276\205\355Z\277\017\030\253\277\214F\302?\214RR?\\\220\204\277\202\000\201\276\001&r\276F\226\342?\231\336\273?\257\341g\276\236\355\247?\340\276\270\276\357\336\253?\246\271I\277\014\\\330?\205:\244>B\344\205?\t/\037\277c\001\367\276\334\246C?\314\243\t\300\n\030\274\277&D\340\2770\200\242?IC\275>\354\2114>\217;\301\275\256-l?\301\303\223\276\201\242h\276j\351\332\2761\225\355=-\221\302\276\023\010\314\277$\222\207>\244:\t@.M\215?b\242\320?c\252+?\262\263\240\273\375yk?\272\235\177?\334\007\245\275\226\207\233?\263\370\214\277x<\201?%}\304?\205\216\246?\2402\352>\2538\261=\250\037b\275Gq,@\232\224\010?n!\014\276\017\'2\2768Uw?vQ\224\275\377\374\241\277\317\375B?\316}z\277j$#\277r:\010?-Q\236>i`\225>k\263\223\275\2667\302\277\211\236\024\277\223\026?\277V+\021\300\235bC\277\352\0328\277\34169\277\331\312U?*R$\277\007s\204\275\273|\351;\025\271\206?\234\220\220?gn\225>[\010\201\277E\n\327\277}\014B\2774\225\005?,\265r>\326\016\305\275\010\005q\277\004\224\334\277\2351\243?\246\277\256>y\362m\277N\331\037\276~\342\034>\312&\026<<\317o\277\tw\230?\360\"%\300\262t\306>\3751\244>\2211\347\277#\215\344\277\303q\375\276.\357\031\2775\037\201\277\337\371\224\277\222\251\242>\304~\224\275\t\335\273>\360\246r?\343fa?\347\330\223>.#\231>\010\377\244\276\342\255\014\277he4\277\024X\004\300\274\355s\277\314\304\265?;\202\226?\362\333\203\277\rr\003@KTi\300\371\205\272\277\2143\277\277\226\000\301\277\033gH?yP\217\277\2752\314\277\306\366P?\247\305t\277\226 \372>M,(?\306\306\242?\324U\032=\001\014o\277\347k&\277\001w\257\277\363\375\323?\367\323C?&\206\264\275r\236\370>>\342G>\014t\365\275\017\033\254?G\'\201\277\240\354m\277Q\177\313\276\322a\224\277~/Q?\325T\'?Qi<\277`\246\341=\303i?\277\340\256\222\277U\324\307;[A\003\277\256\373\222\277;\035\226?\301\306\353\275\0003\212\276z\3435>\230\317\337?\347f!>\362e\247?\034\206w?\347\224\307\276\307\000F\276\217T\004\300O\032`@\320Q<?\024\370\013\277o\273\304>u\307a\276;7\275>\024\350@?\303se=\014$\374>\'p\345\275\006\343\236\276v\300\205\277\370\311\252\276wc\021?{#\344>\220\376\332\276\255d!\277\310a\t\276\3243R> 5\252\276\2254\033\277\247iE?\371S\374\276\1778\002\277\026\224\364\276\215\005F?\373\271\207?\373K\307\275\020A\017?v*\202<\257\316\216\277\360\205\200\277x\374%\277J\270\272?\234\276\223?:\263\212\276\014hk\277\376[\030?\254\353\370>h\336\337\276g)P>~\205\243?\245.\205\276\220\346\243\276\320G\242>\026~8\276G\177Q\277\r\027\343\276*5\245\277U \234\277\240\004\242\277\251\211-?\030\345\271\276Q\242\241\277\237A}?\233O\242?\355\036\\>\250;\253>\016\020~\277-\017\236\276\212~I?`\365\377>\021\034d\276\323\017\226\277\242\324\024@\365\tQ\277\237B\007\277\003\262.\275s\001\024@u\001\313\277\374\332Y?\222M\203\277\230\213\033?D\363\205?!\037i?\303:\321\276\271\275\322\277v\324\273\275\305\255\002?\014\371~?\340\332*>\005\340\324\277\017.\202?Z\324\004\277\256V_?\267\273p?\243\336\301>\250gS>F\347\210?\305\204\345\275\265Q\364?\357B\373>\177Y\311>\332\001m\2778\242\253\277\222i\302\276\027\t-?@=\023\277F\356X\276\377&2\277\016j\034@J\357\035\277\220\360\003\276\230\325\230\277\375l\230\276Qe\236=\217I\330>y\3268\277_\220\264?\005\2122?.r\302\277\336\221N>\027\007>\277\311b\203?\366X\023@\276\014\257?\234R\021?\013\234\t\276\367\270\025\277^i\273\277\261\334\301?\023V\003?\215\275\331?)\346\263\276\233\035\321?\360\247@\277\372Vy\277\331\276V\275\356\245\315>7_i\277N\322\347>.%>>\374\301\360>\315\200\004?\037\363\270\277<\341c?\217v\000=$\333\307\277\274\364\274>\022\2420?A\263->,=\227\27734\201?\250\334\363>\n\2737@\235\316\207?u<\244\276\223\t\322\277ka[\276\246\350Y?\036A\\?\223\013\n\277^\223\023?#k\255?\317o\020>\317k\311\276\024e\017\277\231u\277\275FiX\277\370\013\004>\2731\246?\353\356\014\277O\335J\276\207\304\371\276\001\373\010?\305\010x?\207(h\277\364\245\207<o\234\r@H\214\335\277f\260\255\276\333\032P\277q\333\360>\020\245\213\2759\227\303\277\024p\243=\223\250\370\276g\224\031?U\364`\277F\001\320\277\244\340(\277\236L\310\277\330z\335?1\254\264\277\"\253\016\277\215\036D?\347\004,?\222\"\355>\324R\003\276I0P\276M\367\272?\351Y\330?\225\243\r\277\234\375\310?\260c\311?h\\\036?B\300D\277Y\312\213\276<e`\277t0\025?^\'\267\276\312D\226\277\206 E\276^\007\202\277\tW\377>\317P\220?\275\035\201\275\362\247\315?st\261>*I.\277\367\257\304>\214\221\n\300&\013/\276\244\212\246?\331\206\234>x\333U\277\014\336\001\300\317\325\233\277z\201\005=\326B\203\277\2227\221\277\374\017\200\277i\337s\277\374uT\277\351\272\345\277\\v\216\277\004\367\210\277\200t\272?\247\337\030\276\032G\310=\026AE?\364\374\002?\274\276\001\277\025qO?\221\366[\277\001\306\201>\266\\\374?\263\2556?\255P\250\276t~\000\277\'(\230?\212\r\205\275\242\022\346=\024\024\003\300\022\245\322\277Z\207\035?\320W+>\026f,\276\205\360\350>\n\241\220\275\'\360a\277+\206\345\277>2\271>\343\013#?\230\245\212\277\\=\245\276?\032\236\277\273<\266>~E\363\274\034\206Z\275\177\321\215?\355:\315?3\226\200\2761r\207\277\024\002\n\277\341\201%\2776\027%>\233\344\247\275F*\242\277LNO?=\'\034\277\376\234u\276I\005\320\276\252j2\277\205\225\265\277lt\317\276\220\255\256?\240\3154\277(<`\277\210m\253\277\347\342\202\277%\027\311\275\262\340\006\277.]\272>\033pz=\221y\230\274\252\344>?Cb\210?\335\351=\277\3228\351\277\227\301E@\325\261\211\277K\252\025?$\2326\277\341N\244?b\\[\277\250dp>\210\355\243\277\347%&?\346\266=\277\245d\216\277M;\353>=\315\337=\027\037g\277\211R\000\277\313`K?\254\301+>:@\251>`\337\250\277U\377\034>\370\227\271<\310\233\"\277h\014\306>\366G\343\276?\303\216?\227\246\315\275o\340\210\275\004\320Y?\301\005Z?\010\376\202>7\325U\276\3532\377\276\337\276P>$\353\234\277\274\202\006\277t\323\210>\306p[?\255W\271>@\t!?ob\243=?\321Z\277X*7?b%y=\360\211\255\2761\372\215;^J\341?J\216\260>oO\005\277\254\320m?F\317\247\277O\377\224?\240\203\270>>9\216?\372T~>\350ia\277UZ\244\276$\013@@\020\201\010?\311\271\246?\251\220\207?Kzw?\203\005\205\274\017\305\026\276\366F\254\276\352\273\270\276D\362\351\274\306\327Y\277\262\322\365\276L\347\234?\016\245\301\276c#\206?(\312;?v\023\326>[8\r\277;\245\350\277Qp\367\276:\022]\277\342\344|\276Cu\362?\024\213\260\277\003[5\276{Me\276\242c\200\277^\235\211>\234\274S?9\375\204??`$?\343OH\277\305`\354\277\037{\376?,\2153?$\315\323?c\366\306>(z\001?\345\"\337??IK?\330\374f\274\202\315\370>\362\303}>\016|\230?\255\253\033\277\225\303\315\276\023{@?|\241\024?\363O\216?p\200\241\276\253\023\017\275\346Bu>QG\222?hSw>\000\2720\277\2067\273>\207\266\n@\354K*?\344\357\364>\361l>\277\337\211i>\227\266\031?s/\275\277\312[\226\277:\322@\276{bA\2771\355\311\276a;\006\276\233\010\363\276\303\260\242\276\216|\355\277E\342\216>\345,\237=8$\021>\344\237\205?\020\326\262>0\233(>f\202\256\277|\032\273>o\344\330\274\243\323L\277~\013\030=>K\016\277\256\265p\276SdG>\364a\"\300r\3414>\372 L\275\223\252A?4\206\335\276\256\376\220\276 \305\343\276\006\3500>4\247\264\277]\266\244\276\370\245\225\277\301I\357>\205\027\023\277\313\274\357?\262\247\331?\224\035\335>f\236\263\275!\320\247\275\331\002\001\300{\232]\277\212\276>\275FI\034?\311\216\233\277\357\205v?\335W\205=^\317}>\004\014\336?@\275\216\277\350\303\345?R\313Y\276\033\257\375?f\307\271?Ey\n\277\266\256\r?\314(\214\27543\002\2778\355$<\257\215\217?\262\336\"@r\t\323\276`\372\341>*\3757\300$g\374?\037\252?>\236\006\214>0\242H<Z~\232?2\344\313\277ax\203\276DK\023\300\357v\350\277pK\263\276\355\273\272\276\n\206\002?\t\362\276\276P\272\274>\2102^\277A\033\013?\321\301!\277\204\356\000\300\245\356\t?\350\013\313\275\202>,?\3075*?\273\177K\276L\027P>\324\3372=\221\254\027\275\360\204\037?d\346\372=\233\374:\277U\377\247\276+\200\235?\244\251\006\277\361%\275?\301\325\205\277d\302\215\277\034-\262?\317\302\202\275\'\335\273=!fu=9\203I\277\236\3373\277\205\375(>\311J\225?)P\263>\027>z?\255,\014\276f\255\t\277\001\001\307\2766n\214\277p\250P>U\315\016?\020\262\262\276\032Aw\277\214xj\276\302\252\254?\3027\255\277\254\261\343?\375d\227\277H\004\322>c\277\323\275\2170\354\277\373\276\240?\306\001Y?\335\374U>\364]\262>\374oZ>\305;\225>\200=\234>\333\242\376\277\236\3061\276\n\262>?\363k\n\277YU\217\275(Z\247\277\307\343\352\274\233\336\336\277\323\n\352?.{\211\277\226q\022\276\000\026K?\000\206\240?qS\263\276k\017\177=\236\001\366\276\304\316\220>\031\220C\277\233\226\336\275\252\275G?\323W\301\276\343NF\277\002\t\323?\032-\323>\312\\\325\277\365\024s\277\023\274_>]\343\233?\324\241*>L\234\004\300U\017P\277\"G\237\277\333f\231?\277`C\2776+3\277\270\007\022?;\305\007\277<\201\361\276#5\205\276\243\344\245?\225P\214\277tl\356>\376D_\277U\033n\276\343\317\221\277\247\272\301\276\004}\315\277\003e\200?\367\274/?\003_[\275\320\312Z\276\23457?\376(C\277\374\234\241>h\324\344>w\223\t\277\205\272F\277\034:l?\026 \371?\314b\274<!\3503\276?z\254?\014\344G\276\340\036\256\2764O\373?\221\277\234?J\274\277\277\266\266\365>/\375\304\274[5\251?${\341>\201Z\210\277\316\201*?^\204f\276\364\344\270\277\246kF\276kL\025\277\242-w\277\223\365\036\276Y\343\301\275\331\307E\276\225\n\252\277d_\350\277\260\366\203?\341\203\210?/\266\216\277&\316\033\276\003*\331\275 3n?\343\354\322>\354\276\252?\3244\006@\230\313\000\300g\214\350?\014Z\305\277qy\202?\017\317\222?k\005A?\304\371\201\276V\271\256\275\323\025\222\2776\002!\276\377#\276?V\240~>4\263\276>\023N@\277p\316\201?\375\321\341\277\214\306\001\277S\2043\277\354\262=\276\t3\266<\311^#>\265\002\\?\271H\n?G0\216>\220\001\001?)I\005?\332<\242>\370\024r\275\304\'\376>\371n.\300\236_\t?\324\321\263>\200,\034>\351\213\276\277_\350\003\276\245\207\003\276~%\003?\252(\314\276i\021\333\276\367\271X\275\263\360\203?3\016\364\277\031\324\224\277ew\246\276\350\262U\276U\013\000?V2\247\276\t\364\251\277\316I\211=w\t&\277\204\254i>x\321,\277g\231\201\276\334\\M?\202]d\277p\036\262?\320\033k?\327q\261\275\361U\336\276J- \276\301\351\253>\251\271\'?\347kB\277k\253/\27762i?\220Y\221?\235(}>4[\317\277\233\003\017?<z\272>\014\3423?He\350=?AJ?\262\005I>.\374\243;\231\265v\276B\3606\277+\377l?\032x\027@.\320\216?o\0321\275\361\241\301\276\334\342\320\277n\020\214?\224\013\016>o\003\355\276\370Vc?\220j\245\277`\n\272\276\324\016\336\277\305\001G\300\263k\313>.Pq\277H\310a?\266\211\253>\276l\214\277\333\177\257?\205k\222?\354-\203?\361Z;??\006\352?<P+\300\233\r\335>(l\374\276\027s\342\277\260g\256\276\272\206)?UA>>s\211\362\276n\222!?\213\360\205?\240\000\215\276&\265 @_\373\341>\256\311\002?2\364\277\276~\345a\274\014\303\200>\320\031\264\276A\373\004?\371\361\276>\220\205\030\276\213\204y>\317%x?\246\237a?\203\2742\277\327r\374\277o}1@\032\247U\277\370\r\360=\375\207\037\277\344\360\377>\345\357\214\277\t\320%\277\321\213n\274\232!\265?\360wa>\351X0\276zeo\277h\207e?\332 R\2770!\236?\260\364M\274\210\322\375>*X\215\277\303\203\202\277\235\213\242\275\306\207P\277\313Y!@X*l?\224 \006\277\234#4= \252\273\277\323\313a\277/\364\255\276U5\325>u>\345?\312\201\006>\200\247\224>|\240\330\277\273\033\300>\025\355\213\276\343A4\277#8\235\276\010>\245\274U\3727?\017\007\010\276^u\230\276g\360\317\276\203\016m?\223\367\203\276.Q\207?\272U:\276X\226\321\275\224\201J\277\313\276\233\276N\037t?\221\371q\277ZA\315>\217&&\277\274\343\332>\275Q\353>\220\332\035\300Q8\\=\2725\234=Xv\260\277\247\361p=\334?\307>\301c0@)\355\033@\313>\212\277q\032\007>\204\013\037?\376Z\311?\346bS\276l\336\217\277\026h\245\277\233\326=\277Z|\221\277\305\227\213?\354\207\304\276%,2\277\202]\270?\217~\217\276H?\214\275_\213W>t\235\037\277B\235\177\277t\007\004\300{ii?\027\247\255\276\0146\037\277\323Wp\277S\006\\>\010\263\033\276O\211\277\277\352\353\331\2764Es?\350\204\333\276\215^N\276!^\365\276Wx\264>\225!\217\277(d\327\276\365\301\270\277\307\355\334>\230\234/\276\206\352\251\277\0172\225?3\010i>\304\350\306>\301 \005\300\223zo?\2279\270>\355\350\017?\333p\300\275\2128\230\277\345\276\331?\037c\316\274\237\366A=\326w*\277\315\241\'>u\365\344>\223\005\341=R\2151\277I\213q\277\332\302\267\277\372\027\373\276d\030\232?\"N\233\277\333\023\226?\303g\301\2769\232!\300\303d\327?\0217\'\277\353\177\210\277\253]\003\277\2655\357\277\271\277:>]\3049\277\203s\016\277\021\243\267\277\237\317\017\3009\373\307=5\0005\276\264R\006\300-6\242?\024o\276>\203\2565>\221\364\n\277\220\342\376\276\000\222\260>\037\250q\277\354 \232\277?\226\030\277:\344\210?\013\037J?\241R\322\277\221\354\334\275l\350\013\277/\264\005\276t?@>\r\244\014@s&3?\r\260q?(\363\306?\275G0\277=\246\234\277\310\303\026\300\346\224\033?\3761\261?\242\256\316\276\336\223\217\276W\206\214>(r\225>{w\033\277p!\345\277v\036O\277\342\273\367?\007\201{>\247\243\324\276j\030\303?y\236\"@\202\031\264\276\306\347\266\277\001\227,\277p\337\221?\326\275.\276\021\345\256>Z\242\256\277\276\252\002\277\307\206\247?Ptq?\004c{?S\020\262\276W\245\344\275G\260\247>Y\206\217\277]\371\202>\253k\023\300\034\250\375=\030\207*?\235\225\031\277i\001\254\277i0<\277\352\265\270=j\244\247=\007\244Y;5\257\013\277\2054\376\277<\n\260>\030w\325\275\010\327\034\277\330\302\365\276\243\213\342?\r\n\"\300\240%e\276&\272\267\276\257\274\024>z\315\374\276k\303\254?\337Y\004?\306\250\002?Y\315\233?\007c\210?\341)j\2773a\322\277_=\234\276s\324\254\277/\224>\277\203\0038\274\t\234\224?u\313Z\277\317\365\333>z\374\177\277(\022\262\277\221\225\303>>|,?N\343\277>\264\206\037\276\201\022\317>Z\022\325>\377\245+\277\234\312\235?To\226\277\017\240;>\226,l?\\\262\255\275\307\361\250\273p6]?\352ab?z\277\301?g\366\242\277\245\024\273?\370T\234\277\345\236\203\277\356\304\022?\367\177\254?\241\255\267<uSz>v\010\020?\327\010\220\277\005\256}?\000\006\'?\242\004\253\277\230?b\276\335\2529\275%\257\003\277\247+\305\275\016+\211\277f\033\240\2773{\374\275\242\276|\275\025M\254>\027|\311?\217~5?+5\362>>\000\212?\264P\361?\310\365\255\277\331`Q\277L\007}\277\372\365\313\277yyL?\236J\001>Ie\236\277V\346\034>\365\240\327\274n\003\313?\215_\210>\001\230\026\275$X\020\300\312\274\360\277<.\372\277\201m.\276\307]\205?%g\205>BW\272>\317\227\324?d\221\206?;\352\016?\332\321\262=6&Z>\223\232\227?.\233\334\277\177D\277\276o\215\253\277\224\276\207?W:\037\277r\351\364\277X\277\271\277\003\034\306>\263\270\t\300\346nV\277UA\262?\355\374\010\300 \254\230>~\365\007\277/>\207\277\212)\177?+\036\235\277\001 \036@\010\017R?n\277P\277W\226\216\277?\255\215\275\010\364\023\277\222\367\307\275\\s\342>\030\203\252;\275\367\r?\337\335\311>\207\273|\276i\367\r\277\227c\016@\325\346\230?Q\001\324\276\276\371\364=\3012\216\275\354\351\203\277\272\270\323\276mJz\276\377^\016@\0353\252>V.\242?\002l\023\277\251\304L\2773Z\026\300\2255\323=\335\"\214\277\271[\254\276C3S\277\313ZX?\220\371\r\277\217\013(?\006\355\342?\353y,?\361w\367>5\236\006>n\267\005\277\257\366\315?F6\210>[\352\373?\352x3\276\352/\234>\031\212\356?m\006\220\277B\202\020\277\002\344\355>\317\376\\\277q\310\301?\3104\177>\266\t\203?\035\030\360?\312\344\214\275\000\032\227\277\237\n\362>\212\253\347\277Ene\277Ds\336\2769nX?`!\t?\346\266_?\363\370\273?8\336\346?\371UH?\325\211\374?\366r\250>\374*\013\277\237i\335=Z\326\235\277\304\037\317\276x\377\321\275\277\315\317>\313\262W>\265b\306?\035o\010?\244j\250?+\336\177\277\263o\232>\002\220\033\300\257b3=g\340\035?\\\227\003\300cKd?\376>\016?\315q\371?\361U\206?\256(\246?\033pX>*\300W\275\302\240>\277\316\237\374\276\320q0?s#\363?\321\374\363\276]\002j\277\200K@\277\361\240\200\277\256\033\237\277q\207H\277\016X/?\245V\231?\000v\320>\216\300\216\2776\0104?\217\023V\277\334\216\262>+\t\264?Z\303F\276\347\223F?\207s\023?\305v\363<R@\017@\200\372\333\276\021\271\243?\300\2741?\202\313Y\277\244\243\336?\0075N\277\321\313\000?\321\253\n\300\004\351\032\277\217\340\226?\337\023\177\276\0076f\277\253\320\031\277\332t\317\277\254Qh?(\230\026\275\372\\\014\276&k>>_\005C>\016T\342\276\002*;\277\020r5>\237z\217\277p\303\321=-DD?\371\232\365\273\277\274&\277\031\244\331?\027A\250\277\003\315\026\2776\344\016@\033\347\n?\211\262z>\322\342`\277\023\363\350>\275\330\205>\232\274}\277\242c\274?\201\272#@\202W\343\277\001\256\232?MC\342>\3638\305?\343\022V\275N\360L>\3166\024\277\254\207\313\276\360\260\253\2769\252)?\374\214\212\277\t\233\242>S\317m\300q/T\277\236\226\220\277\201\335$?{\207\224\276YV&\276\2451F\277u\263\013\300\202\034\360>\005e\273?\367Bu?$\025!\3003{d?/\372\025\300\000n\276>\021\177\236>\272\217o>\032\237\246?\363\207\r?\nB\356\277\003\025\361\277\356\3052>D\007M\276m\273|\277\200k\354\276zA1\277\020*\322?\303\371\276>{\032\\\277\017\230M?N\030\327\275\340xp?d\360\266\277\034\244?=~s\263\2779\010O\277\177\003s\277\244x\306<,P\236?\023\336\r\277\3147\212>\342K\034\277\2762\256>\331\274\030\277\226\277\366\277.\3016\300\233V\205\275}\003\235\277O\240G?H\300\220?\014&R\277\351\357\261>\2228\026\277gl\360\275\3202\036\277%\017\306=j(!?\231\221\323?\026K\317\277r\331h\277F\252\217?\036\260\274=8\234U=\300\364p\277\332\205\320?\345\016\234?\365\347\001\277\204\337,?\'\037!?\013y\006?R\302Q@\333nf\277\306N\376\276V{\255>\264\327\365\276\313]7\277p\356+\2776f\304>\014E\021\276\006\225L\277\025\274\236>&b\232\277\336\n\313=\245\005\016\276\347\027p\277\271\3628\276D\243\332?\342Q\334\277\243\331{>\341>\t?\355\210\301\275\225\333\262\276p\355\240\277PNp>\320\321H\277\025c\314?\221\365\024\277\276?\002\300\333\356\340\276\\\026n?\346\237\224=8>\207>\355x\372>\253\2541\276B\207\005?g\275\233\277f\205\007\277\357\331\204?\215\2326\300\265y\326?o\325\251\275\251\305\222\277\006n\330\276\t\316$?\rzZ\277\244\276I\277\316`\272\275\216\002\336\276\202\227\006>M\336#\277J6\017\277\377\001\351\276\357Y\255\277\357L!\277\264A\001@\241\306\243?~&\371\276\232\r6\300\013\355\272?\361\010\335?\346\2406?D\240\005@V\304C\277\210\255\215\276R\354\244\277\n\350c?\266\001\013\277\027j\2538\337\274{\277\227<\314\277\025\262\263?wY*\276\336u\272?Oi\311\2777p\017\3008\350\272?\220B\r?\210\302\375\276tH\322\276x\245\276=\346m\226\277\361\267`? \306\r\300K\232b?\334N1?\016\014\023\277%\374\335\275\2108\004@N\'V\276^\355\263\275\006}\030\277g\3305\300S\227\350\276`\315\207>\237\232>\276 \211\004>\270\246X?t\254\006?\275\261\375\276\300\035\017\276\264\033*@>\215u\277\272\234\357\274\346\026\320\277>\263T\277\3641\230\2775\367\006=jwj\276\351O\207>\375\273(?\377Ns\276\231\351\341?\025vn?\233\000\233\277\303\207\343>\010\257\265?\277\234\307\276\327Q\244>K/\001\277\030\202@?\362\356\307=S\002K@\343%\215\274\027\360\n@I\320\266\275\334\036\'?\234\364\001?\234\210\321\277\002\277\330\274\262\220\r\276\300\354`?\310v\014?\226\227\241>6\204w\277)\231\n@\204\211*\2775\226\322?B\226\021@\376\331\010\277q\223\241\277\373\211+\300\224\177\004\300\r\013n?\'\233/\300\342\272\005\300\303\374\315\276\3139g\277\320\320!?\n\353\031?V@\300>Z\270\231\276K\207\254\277<j\005\277|\356\247?+\333\260\275\324\311m?9\266J\277\374Ye\277\326\250\367\277I  >\264\002!?J=N>\217n6\276P\374\025\277\364\254\265\275UN4?\247\277\305?B\327)?d\341C\277\223D\276?\330\300\033\277^\033\240>\222y\373\276\220.\275\276\344\337\177?\3377\336?\"\301@\277a\220\033\300G\300\034>\204\002\215?\025C\n>\r.\206\277f\226\232?u\177\212\277\257@\245?\240+\262\276\224\356\314\276l\010\263\277Sl\207?tbi\277E\256\326\277\203\017\365<\351t\204\277\"\345\274?\372,*\2750\013\344>\376\244\332?\177J\311?L~a>3\204(?\367\376\211\277\262\312\'\277\325!O?:[\241\276\343v\243\277\250\233\326?\2479\337?\351\330\317<\251*P?\037\316\357\277BD\377>\000\251>\276\267\311\245\277\277\2315?@\351\267>(\3730>\305\304\036\277e\022\005?.-\252\276\303j\037\275\"\300\313>\320t\263>?\310V=( q>\373\265\253\277\364\276&=\2670\266\276\327T\371>\311\227\333\276g\333X=~T\303?\355\244\036?\317&\203>\2254\336\277\207?\226\275O\177a?\225P\262\277\300R\235?\271\317V?2\337}\277k\365\002?\270\004\"\276\013^l@AT\234\277\356\370\306\276\221\357\363>nwD\277\016M\r>\021\323\005\276J\265O\277c\036\335>\307\241\021\277X\366\031\277kb\304?\360\243~\276\215\202\007\300)!\204>v\241\031=\261Go\275\034>e\277%$\n\276`\230s\276\301\213=\277g@\267\277\223\240A\277\266\325\224?\236e\212=\267T\301>\t|\002\277\200\266\216>p%\203<\0265`\276g\235\'?\357\300\211\276\2375p\277\000\221M\277h\014\001@*\232f>\336bn\277u\025\316\276 \024l\277-\345?\275v\345\236\277]6\023\277\200\244/?\301jj\277\357\324\007?\364\352\342\276\252\207\251\276\344\255\016\276\037}\016\277,`t\277\247n\271\277\215\375\330\275#\304\025?\322\256\376\274x\267\301?\353\"\006\300\320\2501?\222\206\211\275M^\236\277\207d\351\276~\320\202?t\215A=8\252;?\374L\246\277\177\036l?\304\003\001\277\034,\213>\360^ \277\224O\217?\"H\315\276i\363\022@\251\003\327\277:\313D?#\261\270\276\202\tJ?\242\345a\277\241\326\004>\260\005\364\275\245\253<\277\254\202\205\276m\236\320\276I\342h>W\007\260\277\344\243D?\336O/?m\027\222?0\377\004\300\236S%=]b\037\277lt\352?\302\332\240\277\303P\230\2776\"\205\276\221\324Z>\356\277>\277<Wa?\032\263.>\235\314\336\277Z\021\003?\005B\244\275\222\332\333>Z0\337<\305\265\t?\251\256\301\277\364\226\213\27779\271\276\326\000\224?vu\224\2757T\252?W*\"@6Mr>\2652\270?qA\006\277\372M\n\277\305\204P?Gn\335\277?\0301?%-\203\277z\343Y=\356\205\006@\330\226\177\277\344\225\\\277\247\301\002=_\203G?t\363\342>$\3044?X\376\250>\2518\022\277\344\317J?q\230\026\277h\231\210?3\0349>q\261\315;\206\023c?\233\025\233?\373\020\342>\276m\204\277\254\262\324\276g@&?\257\235f\277\007+\004?\335+\334?\3510\330\274b\320\355>\221\212\225\276%\3678\277\221\344B?\255\244\245?X\177\000>}^7?\246\241\262?#[\177>5t\265\276z\334#\277\206\253\352?O\360g?}\316}\277\027\374\246\277`\324\243\277P{\363?\331\347\001\277\341f\200>\265ge\276b\360P?\241)\212?Wb\260?}0~\277\272|==A\236\241?\311\267\027>N\021\r@~\335\373?\372\013\234>+\252\007\277P\364\244?.h\361?\251N\223\277\225\207\001\300\222\324}\276~\267\037\277\305&\333\276\304Hm\277\233bz>\376\351\251\277\317\244.\277\022\244,\277\377\334\017\277\2216X>\207\346\242>+\260}\277Sm\222\2751\022\266\276\324[\205>\256\240[?%_\256?\357\252\177\276n\202\335\275C0\034\277\025\333\334?\351\253\273?0\234\026?\203\001\257\277P&\256\277\364i\376\275\000\276f?T2\201\277\027\236\021\277[\203\374\276\256\024=?NK\314\276\372\363s?\033\217\223\277i\266#\276N/\251\277\227#d?\036~\010?\237\322u\276ND\266=\203\262\350?\226\321H\277\375d\345>\364\007\004\277\276\'\210?U7a?\306rg\277\022\366%\277d\223c?Uoz?\022\335\034\276_\215\005\3005N\263?\236\354\327\277\007Q)\277\3322\312>\010\233\010\277\206Y\272?\314\'\014\277\276\316\036\277rU\026?\247{\364>U\001\316\275W\263L\277\220\335\347\277\262iB\276\000go\277&Gg>\361\353\207?\375\264\251\277\327\232]=\262\352$\275H\375]>_\032\232?\004\342Q\277\277\002K\277\341\256\336\276\263|\221?\214\214\204?mY\001\300\360d\371\276\233\030\001?\377}\254?RU\251?\277\345\356\276\323\034\335\275G\245\221?\244Q\344>\201\276\223\277\267\216\257>Q\373,\277?\276\252\277\336[1\2779\n\"?\2109<\277\333\233>?\263\233\\>q\364\307\276R\022\227>{<\276?\317\244\350>\267\347\035?B5\340\277*\222>\277\032\023\250\276C#\264?\001\201J?%y\013\277\337\n\232>\277\351\'?AD\t\277\217DR?K\201$\2774\0377?\247\213\034>_l\277>\345\302\024\277\325\320.?\253\277O?!\341\201?\325\364 ?\377_\315>\355\177\032\276\006\344\353\277\\\217+?)B\344\277\374\335~=s<\035?\003b\202\277}\362\013\275ts\215?\322\325\306\276\217\332\226\277`<-?\002\243\037?\212\277Z\2773\362o\275D\351\307\276VP=?\330\325K>\204\024\306\277N\020\026>9\305L\276\341\032\371?0!3>S\026\212?\023\203!>\216E\006?\373\022\354>\206\341=?\303\002\333>\205\341\247\2774\374\267?\2373W>\343%\347>\314\267\035>\277\365\006@3D\030\277M\020\334?2_\004\276a\2559\277\360\332\231\277\177\267\313\276AJl\2773\301\272>\345 A?\n\362B\276b\014X>\210\220\242=\362\375\367>C7%@\344\205\272\277\320i^\277\354-\207\277\275NS\277{\031\272?\232\305!?\313\001\336?X\337\231?\265\211\275?{$\257?\000\245c?\335G%?\230\215B?\307\177\310>Z3\334\2773\000\250\274\252&\244?\2216\323<J\241\360>JT\020\300D\255`>\260\036\003?\212\322\'?\320M~\277\216g,?j\312\r?\332\267\331\277\375x\360\276.l0\276\366/\t\277V\311\024\277\307\334\232=\201\357\276\277\251\225\205?\332\250\201\277\024\2717\277\341IH\300\345\261\031?\347\026W\276\226\356\002@\212\255\232\276\026\370\206\277*\362\272\277uV\264>\010\265z?\177\241\346\276~\215\373\277\r\347B?QR\315\276/4\020?\\\215%\277cV\263?\235\003\332\276\302\321(>V]\205?I\r\343?\217\246\366?\245\307\027\300c\257\250?\257\206\177>\211S\201\277\356\2356>\323;\300\276\200\022\003\277)\344\210\274\324.\204\276_\001\206\277\233\300\225\277\353S\310\277\322#\201\275\242\246b?!\343\247\277\004\245Y\276\355 \017?B\203\204?\0105\245?\302J\342??~A?\360\324\017@\347J\"\300o\"f\276\271\316\270\277\376\022\000\300\360\344\310\277X\266\203?\036?\021\277\267\213\212\277|\021\333>`\241\"\277X\\[?\017_\344>\255\004H\277\330\231\240?\227\377#?~\270-?\362\322\316?v\343\252?\315=\330\276\321\301+\276;\372\225>f#|?5\321r>\343\033z==\304R>\2562\362>\320M\244>G\273\220?\250!U?\030\264\017>\377\365\026\300\004\344\313\277\357\231\202?\264\007:?.e:?\232o\236>-\375\374>o,W?z\245\234>\033\241\311\277\031\235\331?\221\374\267\277A\342\025@\030\276\002\300Q,\025\277\310\334\034\277\354\324\357>1+-\277\347_\001= \n\273\277O\225\332\274\212\3210\277&&q\277I\364}?\277S\317\277\370}\000\300\240\205\253\277\002\010\271>\364r\016\300\316>\347?\302\363&?\212\203\312>\310\r&\276\025\347\213?\342\364\334\275h\372\237\277}Y\372\276\"H\257\277n0\244?\320\321\030\277\345\227f\277\214J\244\277\370:\352\276\002X\234?\341\263|\277\341?\033\277N,\277?\334\rn>\253\264\250\277\255?Y\277F\n\262\2769J\324\276\013\214\363\276\")\354\277\032R\177\277(\370\333\275\221/\226\276:_\311?\013\024\346\276n\242M\277b\302\307<B\327\n\276%\344\303\277\377T\004\300\177F\014?C\010\236\276\241\2215=}\301S?\216O\230>\374\361\215?\230j\337\277\024\332j\277\020\302\235=n1j\277\342o\205?\010z\013?a\332\206?\363i\260\277\257%S\277\2275\301?\352^\346>\271?\366\277\274\271H\277b\300\316\276\371u\232\277\264\372\005@\370\236f?\253z\365\277\362&\267?\372\231\200=\001\r\026@\260\262\035?h10\277;\360\177\276N\t\003\277\302sB?hz\026\300\274\027\255?\032\036\247=\024\272\350\277>\366\270\276(\201p\277\023\245F\277\377\354S>\337\035(?\r^\201>\346w\274?\335n\265\276_\025\272\277\0239\024\277b\025\000\277\r\tL?\334\256\215\276\001z}>I\264\353?\257C\010\276GM\367>\375\271g\277\305\257\336\276\237\026\313>c\200\324?\360*\223\276\013\204K\277\366\200\240;Ww!?8\334|?;\344\271\277\030-\236=5u\263\274\355\235\002\276~\326A\277\277*\032\276Zw@\276>n\211\277\023$\325\277\035\352\362>\327\344\217\275\221\305+?%x\277?\273\255V?\274\"U\277Ja\244?#\231\277\275\303\251X?L3\320\276>~\357>\017\217\341\271\255\233b?\222\231\204>\330%\215?\001~A\277\254\022*\277b\340\272>\356\314\305\277xs\311?w\263\200\277#\020j?\013\301\336>\3632\332\277Y\"\324\274\2646\033\277O,\363\277y\231\314\276\261\371c\277\016mg?88\024?\304\324\344>f\027\361\2767\242\203\277\\/\317\277U\265\023?Z\250\342> H\320>\234lN\277\374\231\355>\316L\343<\256I\234?/\305\260?\371\213 ?\331{X>\231\257\203\277\270\334@>vU >&*\202>R[\317>O\020\251\276\213\234\203\2767\017\037\277\253d\210\277\335\335C\276\366(k? &\314\2762\316\314>N\200\254?\316\246\357?\022\221\013\277\337\001\332;\223\315\013\277\226\352\360>\263^\016<\205w\037?\361/\003>\277\364S>}>\023?\243[\363\277\350\242?>\360\272\227\276\240]\263?j\372\233\277\027)\213>\333\231\301\277\323\222\037\275\221\006\001\277n\342\215?\304\203\244\277q\233\320\277\021[\005?\226q\022\300\203\201\242\277\363e#\276\263 \254>\370X\312\277\315]\016@u\332\306>\215\210j> \315\026@\216=\303>!Y\034=yN\t\277\0265C\275J\003E\277\204S\312?\221m\203\277\341X\225?\316\256\245?\251t\r\300\336\302\234\275/J\207\277\303U\231>_fI\276\226\304\030>h\316\327=-\244+?\'}i=m\326e?7L6\277g\373\337>\033\357\001\300\201>\020\300\035f\\>s{\237>\000OE\276$\323\247=\030\356@\277\315\254\301>k\233A?\202\273\337\276\243\257\223?\026\241\021\276\255j\010\276\037E1?Mf\260?\320\366v?\t\204\034?2\241\306\277k\340!?\300\361\333\277X\232#?\327w\355>\2664\215>l[M\277o\036\231>\243\274\214\277\336\303i?\257\232\333>\213\034<\277\363\323i\276vw\\?0\267h?bp\256\277Q\220\337=\r\003\212\277tF\206?-/\371\273\206\004\272\277\367jN\276\233i{?\355a9?O\272\213\277\367\353\230\277Tc&\277w\276\006\276\037\034\002?L&\264\276\272\3342?O\2717?(u&\273\246(\215?=\016\217\277|S\227\277\244m\000\300\216d\'@\n!\230\2754\230_\276\227;\017\277cZ\260\276\356\'\356\273q\322\251\276\357\302i?\037\034\230\276\336\334\316\276w\337U?)\367+?\240\230\370>\316f}?h\214\270>\350\273\215\277`\177\360\277\346\364\315?\200\203N<\000Q\304\276\257\276\323? \361\373\274\237\363\351\276\340\250h?\256\375\261?h\311j\277\315\370\375\277h#\272\273\223\007H=\225\224#=>\236\016?^\r\036?S\375\323=:\3342?\276\006 \277\347w\203\276\010\007f=\371\247\203>\004\221\327>\006o`?\326\267\204\277\006z\035\300\204\026\232\276\366\236\235?F\365f\276f\024\310?\036\202\307\275\356\311\271\276\230}\024\277\340`\341?\317\356\304\277q)t\276\304\327I\276\244t\241\277`l\004\277\335y\211?\210x\320\276_i\226\277:\335\243?Q\244\366>\322\026\233\275\365\231E?\231R\206\277\036hP\276=\361\227\277.m\344\276\264\272\000?/\203\371\274j}\260\276q\371%?7\335\030>9\356]?!\274\021\300\202\363\032@!\017\256>\243D\032\300\323\316f>\3349\256?\356\365\362>\211\237\206\276j\347!>x\364\225\277\014\250\020\276\206b9?\260\213\275?\346\371\343?\327\350\351\276\233#S>\306\307\035\277/\"K\276\331\217\214\275\023\"\223?\301\033\332\276\317AW@\006\275=\277\340\260\034?\321\277\235>\347\310\247\277/\321V\2766\355`\277bl\344\276\235@\247=\363\320\224\277\346\266\025@?o\030?\352%\031\300\200\3734?\260\211\034\277\035\247\241\277\346\243\237\277\016\212\267?g&B\277\036?<?w\274`?\264/#\276F4\221?\376z\321\277\321!\232\277\263\372\202\276\n\320\371\2770\337\000\277\347\343\313?\rW\002\277#H.\300\032U\303?5\331d?\235\304F?\214\224\330\277W\004J\277\260\263\241\276TM\257\277i\306 <\363\254\216\277\273\265\346\276\267?\223?g\221\213\277\301\2229\277[\341\333\275jE\215?\314\030\273\277\n\220\222?\352\375\354\276k(\241>>\025\013??\032\213\2774\342\266\276\352[\244\276\370\371\217\276!\2517?:\022\262\277\360\212\276>\326\003\241\2779\300\025?\320\327\033\276 xW?\370i\005?\277\203\331\275@{\"\277\347\3336\276\376N\r\276\332\264\016?Kf\321?z\337\355\276\252\235\307>,\002e\273\245\3464\276\317\035\351\277\032\372\235?\255\375\033\276\206G\025\300\223\255\310\277\210\204\223\277\027lW?\333\222\317\277\016:I\277Xjm\277\374)=?m\365\027\277<\006\225\277\301\256S\275j>\216?\376e\206\2776\030\320?1\336\206>\014\255\313\277a{\215=\177\024\261\277\302--\277^c\253?\3041\343>#\004\224\276\345\340\212\277\362>\317=\230\263\321>\317y\203?\233!\350<\024\002\207>m[\243>\215W\340\277\177\236\241\277|?\361>\013\006\256>P\\s\275G\350\020\300\266k3?K<\367\276S\352U?\370\244\n?\000j\346\277-\375\261>v\267\312\276q\203\365=\243\363b\277\315p\'\277?\014Z\276\334\314\236\276\334\326\307=\031\177\303\277\314K\341?u\334I?\335\253\256\277\"pJ?&{\203\277\005R\335\276\222\200\022?\210\001\241\277\257\314\313\277\234 v\276\035\271\216?20`\277j\371\377=\346\340S\2777X\230\277\240\024\347\276 \233N?\3448 \300Ee\r?e\270\254>\323\244\304?\n\355~\276C\306\266?h\355\340?\216\261I\277\373\371\204\277\272H\357\276\224\316\227?\272\220#\300\320\310\005>\213&d\276\322\315\311?\177\037\023\276O-\367?3M\220?0d\237?\330\255V\277\263#\207?\355\016J?\025W\260?X\305\310\277\207U\272\276\321u\010\277e=\303>!3\014\277\356.Z\277*\237\264\277V\217\243\277\036\325n\277\303(\221\276\002\267\201>\313\221\231\277\035\332\222\277g\3517\277\365i\t>\204R\366>\307\357s?\014N\035?\0324;>\017{W?A\364m\276\002\n\320>\016\004x\277\271\014\225?t\327\260?\305\344\004@\273\352L\277gi\232\277\274\356)>\255#\236\275\307y\243?lD\345?w\225\037\277I\350\010\2776\t\336>\267\006]\277\021\262\264>\202\232\222\277\342F^\277\340@;\277\037\002\335\277#\253\264>0\206\305\274\354\231%\277,\332K?i\014\200\276\226C\226?\365e\312>V?\'\277\304\353\303\276\020[\347\277\301\247\226\277\223FK?\317\310\030?yo\356>\033K\373>0\354\033\277\026\364\236>>\235\344\276_\276\327\277\322\251\227?\013\230\021>\252\003\300\277\276b\320\2767[\362>`t\367>\251]\034?\301E)\276\312p\261?Y?\213\275\017\253\034@\010\362\243>xJ\027\300\\\200\255\275W^\010@r\365\004\277\272\224V>r\022W>^\362\003\277a\334\276\275\\\'\034\276\001\335H?1\326\306\277B\207\005\277q\355\030?\215\236\225?u\325;? N\344\276\370{\214?N\350\000\277J\177\006?i\n7\277\311Lf?<\204\213?$\t\326?\245\t\213\277\211U\304\277(OT?\357J\000?s.\230\277t.\r?O\357\021?\273\205\177?1;\"?i\270r>\247g\232\275\335\024:\277\2607\232\277\010.y>\272#\r\300(\371\227\277uI\202?\253\334\023?Br\210?\324w(\276\016n<>\264B\253\275H\030\253\277]mK?\270\271\217\277\232<\223=_\021\347\276\027\250\017=_D\366<\217\257\255\274uBl\277\310\244\220\277V\300\316\276\311\035%\277\311\031\227?\316\246\206>\"\211\010\300D\260\266?N&W\277Z\211\020\277\373t\215\277\207U\264?y\217\263\275\031Xa?\303pS?sGb>\303\325&\277\273\322#\277cG\242\277\032 @?a\366\271\276\342\254\321\277\221\370\223?\204\250\243\277L3\002\300\334A5?i\315\273\275K\352\252>y\320.\277\r\246\332\277\373\031\241>\232\254\000?\345 \244>\020\237\360\276oCH?\332M.?>v\227\277\260\322\362>\267\006(?\345_!?l\362=?t?\213>\3361\303\276N\005M?\335\271\257?\0178\253>L\005.?\021\265\224\277\332\363\241?\252\356]=\007\247\346\277\253\007;\277\201|\270>w\223\304>O\212Z>9\177\\>zyV>}>\220\277\371\256\233?\357y|\276\2727\005\300Rv\220\277\237M\272\274\307\315\014?W\235\310\276\307\374\234\277\231\201\200?\377<;\277*\376@?\321\256\273\2776{\225\276\\\255P\275c|\260?\003K_\277\345d\260?\262\344\307\274\251yX\277o\312\002\275b\271\255?\271u\366\277\227n$?\007\351\032\276\022\226\224?\334P\204?\366}\270?0\177U?\007d\216\277\274 8\277\357\027\004\277\0045\205?\322T\311\276\240\330\013>\210(\325?\210\\_?+\3576?f\353\271?\233hi?\342,\340\277\031\250!\2769$\241?\316\320\025?\237\330)>G\333l>\376\246U?\222\307h\276\250\273\036\277\367s!?\265y\307\277}\372\006>X+\034\277\204(\024@w\035\332\277\2561\241?B\363\203?nH\243\276 \016\366\277M\202q\275\246\201\233?1\004,>Q\252\360>\006\256\327>\253K\323>\350\256U\277\373\273\204\276\014\210h?,\277\034\277I\366\216\277\360t\271?\241e#\276[\220\253?\020\353\237\276\031\2251?u\332\257\277\307o\253?n\014\203?L|\333\276j\230\334\276\363\234\266\277U J\275\256o\201\276\325yU?\327\325\030\277\257\213\315\276g\353\247?+C.?\357\360\013\277\243\033\372>\021\264\373>\303\221\360\2770\352\307\276\013\017\211\277\036\r>\277\272aI?\210\314\014@_\010r>\204+\263\275\307Ui?\346\304-\277\271\371\232\275\2765\262?\006\350\310>5o?\275\246\"\215>e\031\262?\331i\243\276O\235G\276\361\243\312=\301.\242\277\\\337\000\2776\177\217\276hl\341\274<\340\364\277\327\242Z\277HH\317\276I\233F>\332\200\334\277\363\331\220?9\316\360\276\353\250\254=4d\001\277\253f\200>L\312\253;\340\346\027@\264\205\213?\016\024\205?\017\240\212?^\247\234\277\336Ve?Tj\205?\321LS\276\375\207\262=W3\265>4\255\227?\270\227\014@\024\320&?\303C\263\276\341\204\326\272\0138\237>\350j\230>\002\021\374\276R\030\033\276L\000\241\275\310\244p?\303oB>\261\253\217=\260\277\267\277g\323,\277\301b\025\300\321\350\227?\267\317\316?S\201\353\276\223\350z?\371\233\263?\251,\261?\361\250\307>\301\261\002\277\203\244\010\277\220--?\366\274%\300lp\357?\tb\244\277x2\203\276bG\236?\270N\234>&H+\276\245\347\375>\274\363\241>\350\357!?\003\246\000?0j\307\277\302p\346\277-e\270\277H\305]\277X\312\016?\236aS\277`@\303\2773\2726?c\351\356\275\307\\\207?\315c\225<}Wf>\276\035\013?\340\271\250?-\364f?[SK?\273\203r?\353\010\326?\253^\254?\244(\214?\334T\266?\210\232o?6\313\211>0\230\370>\017\036@\277;\217\035\276f\r\307<\356\251\006\300\360\005\221\276r\034\324?6\213\243\276\364\327#\2775\264\305\276\230\245\\?\360l\240\276:I\244\275\336\304j\277\010\030\376\275\360L1\277\215\030\225?\347\311\302>\005\351\201>\302\316\226\277Vt\274\276\372\267\221\275\010X\221=\230\023\373\277i%\305?f\201s\27791\347\276kw\366<\026\307Y?\345\031V\276\205\302S\277\t\271\026?\216\365\205?\340\264\\?\213\020\375\275\376{{>\020O\344\277\342R\332?\265T\344<1^\227\276\030\"\274\276\203\030{\276i\263\365>_w\223?I\213\232\277\373N(\275 \"\231\277\203>`?eb\022\277\243^\356=\246\337\301\277\227\3237?\210\303\333?\221\020\361?\334\360\250>\363\033\254=\237\244M?\241\204\313\275K\347\251>\324uW\276\355\226\262>\335\325\316\277T\246\t>\204c\333\276D\301$\277\3065\341>\314a\255>%u\205?\375\034x\277\352(}\277\246\313\222?`\324Q?YMn=48\347?\252\005K>\324`H?\034\321u>0\240\360\276\225\245L>\"iF\275\267\231\005\300)\262\214\277v\342\344\276\033p\372\277\321\323i\277\013\227\324>\264\n\'?\201!\344\277\242^\027\277N\202D?\005\377\301?\320;#\277S=z?Q+\"\276\325\205\216?h3e?\235\264)?\316\007\345\277\345\372\274\276\234]\030\277\343~\275\276\250\332\236\277.\030!=3M\271?Kb\366\276`G\250?\r\352\260\277\324\366&\274S\267v>\262\257\257>\203\024\004?\335\322\270\275\312uG\277)\212\000?\372\034\003?\237\270\210>\264x\371=i\0062?\200\240;?\370<\n?\2216#?M\304\203\276\207\244\376>\374\333K\277X\364\231\277\323\223S\277\013\2374\277\301)\301\276\267:\252?O\371\363\277\371\237\232?G\253\357?P\243\237\277\024\035{\277Q\322\235\277w\306\307>=\252\010\276:\336\353? \030\217?U\350\241\275iB\335=h`\336?t\370\354=\216\355\250?\023\340\016?~+\310>\306nm\276\271\205\354>\211\203\003\277\335#X\277\030y\266\277Ki\371\277g\027\204?\265\202\000\277\002N\177?n\0242\276\005\235\250\277s\236\205\276\347\022\375>W\306.\277\'\356r\277\272\251;\277)`\274?Kf\250\277\242[\237>\260\306\035\2770\310\304=w\240\372\277\316\346v\276\212,\236?\035\001\200\276+-\007>J\253\024>\334\230\332>\205A\030?s\351\214\277\024\207\212<\311T\234=\332\\p?\251\225\027?\243e\312\277\006\227\325\2760\013U\277\302A\262>\032\335\025\275\204\347\344=\235\031\214\276\0134\327?\020\203\330=\336\374.\300\rm\264?\3730\306?\327\016\221?\020\373\244\276\205\334\253?%\353Y\276h\2064\277\265\242\205\277\337\270\201\274\035\247\224?\207\305\202\275\301\233\033\277\tE\177\277`\360z?\365\316\252>\3559\\\277\246OW\277\372K\034?g\331g?\241\255\330\277Up7\276\014Oa\277uK\020@\212\214\336\276\263\302B\300nX>\276\263\032\234>\210\036W?\005P\373\27775\273\277+\376\232?=\017\003\2779M\014\300\376J\027\277\253\366@\2764\357\024\277\363!\275\276\327\214\003?\004d\n\300Zz\256\276\001\314\255\277\331aO\277\216`\261\277\347\330\004@((\300?\255\001B\277\335\261\257>\035\231M\277i\034\362=\242!\306\276,\235+?7\032)\277S*\016?Q\007\244\277$PR?\370\270_\277\327\306\246?\1779\275?\326\032\\?\030*\261\277\221r\\?\204\001\323>\376\236Q?q\251\031\277t[\256\275Q `\277\370:\344?(S\231\277mjY\276X\007\241\276,\327\224>\235U\005\277\201\217\003?\3615#\275<6\245?\273fs\277:\265\n?\244\322\211\277\\\205\022?\325\217\033=f\360>\277g\233\333\276\262\346\\\2768W\314?\342i\022\300-\273\020\277f{\314\277a\204\370>\230@\252=\272)#?\024!\247\277\362\3402>c\374[?\374m\267\276\317S\t\300G\371b?(\332\237\276\005\2137?\342&\212\277/7\354\2750\242.\277p\311\010\277\372\316\221\277\204)\205\276\304B\231\277q\t\300>\000JM\276\277@\313\276\321\243r\276p?\362\277\334[\271\275\367\000\204?\327\320\274?XO{>\303\270R\277;\360\250?\235\264\245\276\214\273\301\276\335g\033?\307\247\010?\303q}?\372:\037\277\367\236\255\275\321n\274?\326\217\000?\302\232\315\274\371\023\240?\374]\320?\031ei\276\327\334T\2761\2603?\272\360>>\374\013\225>x\307\267?\207i&>7\242\"\277\216\210\254?\rh\312\277k\310l\276;\001\027\300\314\242\003\276\tx)@\225+\202?\n\327\001\300$\321_\277\362l\340>\356\234\266\276\027\322\351>\221z\317\276T1\007?\237\270\200>\272\007\223?5\232\224?\277\233\231>\263\256\335?\200\032\203\277\276\335\203>\306<2?$;L\277(\\\346?\214\036C\276\370\344\217=U%\200\276DU\363>\365G\256\274Q\255\324>\366\250\310\275\326\307\336\275\361\265\312\275\200x\202>\326l\370\2772\206\027?\271\311\202\276\227d\020\277\017\355\222\276O\032r?\354\245\260\276%\n\271>\301p<?\3513\215\277\254\241d?\033\013\254\275\003\204C\277?\211\220\276\214\225\231>T\321\236>\025 (\276t~\337\276\177\207\">\025\016\355\276\356\302\235\277[\307\270\277jQ\305\277\200\225\370>\222\200\014\277\207\020\230?\010\201\371\277\177\234C=\300\242\225\277\250c\270?\303\014\221?\351=\310\276 0P\276/My;7\222v>\005\342/?\313\3159\277\223@%\277s\014]>\232\307z?\330\033D\277\010\3065>\272\023L\300\031\332\006\300\246\r\253?<I\001@\325\267\275>\177\374\233?\245\231\367;\324\221:\276\330\237\225\276\227\357o?\314\231\364?\241\253\007@\302\335\375\276\354\250\300\277\212a\261\277\257G\300?\013\234\000=\000N\241?p\235\337\275Yo@\276\333\350+\277,K\001\277\252\254\234\276H\214\241\276\t\267\221\276|\324\204\277V\220B>\244\236\214>\344T\214\2778\r\216?\2022\225\276\3534\223<p\027\364>\003\240\034>5\354\231?\311\301\255?\373\267r?\213i\025\277\316\016?\277\233_D?c\251\271\277C\263\207\276\004\216m\277\301<c>\274\224<=\272v\233\276Ru\355\2769\244\r?\323Y#\3001i\037\276\'\316\207?\034\212\274\276&}\271>\202\217*\300(\251=\277\005\271\261\277b{\220\277%\226\220?2\325\376\277\275\313\000\277\310\003\n>\374\367l\276\357)-\276<\007\376\276U\372<\277\342\360\241\277m\266\366\276\r\245\373>\376\341\233?\030\201\"\276\341;e>\220\375\263\277\253*\220?\034O\324>e\272\231\277\020\3633?L\007\252?\235|]?\233\346H\276\362\333;=\353\014\311>\315m\241?f\230\242?gL\'\277u{4?\016S\006\276\340\323Z=\n\247\216?\367\301\215\276\332\257\377>\351 \035\277\035\204\270<\270\306\213?\242\352\017?\311\253\374\277Cs\206>\264\345\037\277\277x\034\277\340\265\004\277\223\"\250>\262R ?\227.x<\233%\343\277\035#\356?\205\241\010\300$:\301>\364\215B?\233&\343\277\363\250c\277\377+%<\351G\251?\357<\236?\204\031\274\275\337\311\235?\251,\205?\3071\315?-\337\255>\360\344\023?\225\024\265\277\245\376\241\277\372\354\036\277)\2723?\274G.\277M@\333=\31604\277\377\313\274?>\032\244>I\213\254\277\206\256E\276\235\377\373\277\234M(>**\223=,\260\231?\203U\270?\310\335\304\275\221\347\277?\271e\020\277a\212\354?D\223<\277\256\373\t\277\2426\341\276K\305\344==-\305\276\305\325\275>x\033 =\250\377d>\227<\032\300\013\210\022?\236\377K?\2663\326\276g\313\345\277\255y\210\277w\3668>\215W\305?\245R\210>,\205\245?\366\211]\277Q\215<?+\202\236\276;\037!?\235\3216\277\271\032\021\277~a\236\276\253\013\227\277\016$\231\277\254\201\250?i\010\217?C\232\322\277\233\226\317>wc\256\276\241\223\342>v\257\002?vw-\300\325\233\300>\376\004\023\277\222\335\256\276\323\232\n@\250\271\314?\334\370\353?y\034\250\277\220\\\373\276^\274:?\361\357\277?\rL\211?\031l\210?Xl\317=\355\311\315>\210M\357=aY\313\277\270\323\211\277\315\326\004\300\'\327\255?\353w\224=\005*\372\276t1I\277\371\344\t\275\013\347\025\275z\241H>\346\271f?\035W\013\277\331\336\266\270\230\202\'?\353\267\321>\337(\237?\314\300\021\277\310\373\237\277\214\031\243\277\000\206\213\277\024V\315=\216\266\220\277\350E\366>\023\342\325>6D\241?\240p\201\277\t\215i\277\201\324\204\277\227\332&>\346\261\326=\350\3539>\327j\005\277\3277\306\277\034]\200?\216\354??\253P\270\276\177\242\255\277 \272\224>t\270\376\275\202\252(?\254\321J\277)_\274\277j\277*?\354\365g\276\317\3073\277M\264\223\277\247D\212\276V\211%=q\252c\277\006%\251>\016s\310?@\377\264>\222\302\215=\370m;\2764\307\370?r\356F?\367N\275\277\271\255\351>\317\013\212?Q\177\364\276\267\034\260\277\256b\223\276\235\346\263\276\2732\242\2776!@?\354:;>bt\212\276\314D\t\2768\250\265>\337\276\324\276\210\264(@P\2576\300\005\013\020?z\364T>\223U>\277\001SP>\273F\n\277\000y-\277z\253z?\215\032\233?\370c\031\300^\357\360?\035\256\277\275\210\204a\277\375q\351\276\323\312H\277\003\247!\277dq\275\277n\344\213>}\214/\277\365\277\216?kT\227>\334\020!>\322\351\233\277>u\303\276\025\256\033\277\345\241\242>\022+G?l\251\311\277\365,\253\277\352\301\217\2768\273\201?MsZ?\2761&\277.?\233?\321\3642\277oS|\277m\324\272>B$V?q\353\255?\316\326\240\273\243\2246\277VC\212\276\364\r\035\3004!o?\213\354\003?\346\371\255\276\364\367^>j\231\223?N\2101?\213\034&\276\343\226\270\277\214\355\244?T\356\341>\214\372\341>g\256J\275|#\313\276:\216\230\277t\220@?\177\250\t?,na\276\003\032\221\277\\\256\364>\352M\366>_&\204?\273\220\232?\306\322\211>\3372+?\374\237\270\277\240\205/\276\227h\203?n\3477\277V`9>\247\350\240>\362\232\323?\tr\026?]8\213>F)\252\277\264\344\271>\316\033\317\276\251\244\001\277\224\034\221\277\257+\244\276_y\330<\325G\301\274eSg?\206\362z\277\270M\226>&\207m?f\323\355>\322n\222\276\334\2321\276[\013)\300\334m\020?\313\345\210>,s\330?\036\244\307>\345\363\220\277\307\3113?\212\\\225\277\266\350\202?\214\302.\275\004G\242\274\202^\224\277\242\360\270\275\214\323;?R\036\n\300\313#\250\274\330\003!\276\2075O\276>>\322\277\326\243!?0\274\'\277D\334\217?\274\255\222?E\020\316>R\327\241?z\3632\2769\261\016@\202j\236?\006\000\234\276\300\007`?\025m\256?\273J<?\025\326<?\347\264\037\277\206O\300\277\336\255\270>\216\201\266\277\205c\330\277\363]\320\275+sh>\206\2009?\023\357\332\276\356S6\277=\203f>\032c\016@A\244\032>-\314\016?!\033\322?I~\347\277\210$G<\t\334\303?\321\tO\276\241f\374>\310F\014\300\3727Y?w\207\335\277\272\364(@9fT\277l\035[>\312\rX\277$\356\303\275;\215\304?\301V\356\275\363u\323>Q\230\360?$\200\224\277,\211\254\277Rx\217=\233\212b\277\375X\037?TAO>P\235\312?\303\t\334\277^\262\336\273p\231\315\277\334\361.?\264{F\277\'0\345>\307\3038\276\376\364\037\275\354]\243\276\2308\267\276\2501\021\277\261a\226?\246^\367?g\333\335\276\016\335h?(\227Q\276\277\342A\276\261Es?\271e\377\2775\204j\277LgV\276_\242\250?}\255\306>\234\033\026?0p\244\277|\356\374>\037\376\262?\303\005\030\277\031\204|\277\231\340\206\277\022M*\277\225\336\226\276\231\270+\277\222%B\275\021\352c\277\261m\266\274S\206\222\277\315\357\n?q\220\202\277\353&\036\276\241B\302?\3071\336=^w0\277\217{\023\300\311?\360>\t\343\370\276\216.\241\277\361\203\254? \367w\277\nd\320>\365*<\277%\004\206\276A\n\036\300\260\243\024?\221\260@?\205\371\357>\204\376z=\304\304\371\276\022\302\234=\265\217n\276Q\013\200\277\202\330\034?\355e\353?v\003$\300\1779\024@i<~?y\255O\275\002\312\023\277_m\263?\372\233\005\277D5\212?w\306.\2772\033\267>3\274\344\276\211\035\266?x\035$\275\357\335\013?=\377;\274\335@4\277\345$\213\276\310=\025?\251`E\277\252\360\\\277\342\234z\275\3371 ?\313G+\275\273\251\210?bj\210\277\361\344\215?\001 R>\300\225\360\277#\357s?\263\366\262?FH\037>\n\262\312\276\326\205=\277\370\223g?\325B~=\316lZ>\254K\231\277\251\032\034?\312\363L\277G\374\222\277Bpm=-\023\255?\036\211x\275\210cZ?}\3100\276\3702\367\276\216\262T?\307\241\257?\367b\215\276\303\305\355?L\205\220\275\326K\252\277\200W\207>\320\361\203>\355\247\211\276d\207\013\277\223\363\345\277\277\247\n\275\243\242X\277}O\356>\231\312~?\347z%?\272\322\260>\000\337\212\275\202a\354=\354\031d?\351\267\333>\260\036\227?,\020\213=\313&\276\275\034$\252>\\\3516\273\\\307\201\277\037\231\036@\324\250\220>\234^C?\n\024q?\252\202*\277l\342\002\277|^\203?\252X\224\276\277\226\017?\213Vx\277\003\327\247\275^*\331>\027\271\025\277\232\337\250?%]\002?\334\035\321<\302\327\036=\322H\366>\256\351,\277\017\016^\276J\360\336>\376\035U?e\261\231\277\311V\250?\006\213\336\277SE\223?\225=\036\277\320*f>\276\352\035?\332\326\200?<K/\276\215\236o?s\022\020\277=7\266\277-\246\261?Za<\277\335\004\224\275\230\234\241?U\326\221\277\342\201\202\277\223\242.\277\007)\254?\327\245\035\276\243\231C\276\275Q0@\270\223\205?\204\0227?\002Ko?X7\233>\226z\262?\350\351\222\277<\216_?;\244\006\300<\315\'\277\327\002\337?+\323\002?R\364&>\305\2277\277V\310\200\277-.\215?\373\026\275?\017K\n\300\310?\327\277\261\360\241\276\272\353X?\342Q%?\035Q\004?\0205\020?\255\255\324\276\210{\275?\200M\262>\\m\234\277\310\365\252\276S\364\222>\2003\316\277v\034\226>\351\221\360\276$y\201\277\314-\341\275\315pZ\277_\024!=|\275\316\276\320\244\205>K\361\320=\t\210\303\277\327.\307?e\247\311\277\327\325\231\276\006j\232\276%>u\277\"\225\r\274zx\033\277}\252\022\277\263gk\277\007y\237??u$\276l$g>\320\247\270>+v\010<\026\310r\276\251\006\030?\205\244\313\277\223sb\277\354\023q<0R\215?\"Y\273\277\214\350\036?O\225v\277F\0173\276\032\373<\277\030\233D\277\276\211\271>P(T\276*F\t\300\000/h?<\021$?kZ\037@-\254\302=p\211O?\376<\342=\234_T>\002\247\023\277 Z\237\275U\200\'\275\207p\324=|\003@\276b\204\026@th\230\277^<4\277\374\0253?\304\r\271>g\0344\276\017\0275?D\033u\277\322\326\340?\2326\'\277\274%\247\277\2020\232<&\322\002\277\220\022%?P\357\020?&)\000\275Q\217\220?\223\231\326\276e\267\243\277A\306\256\276sr\000\300PG*?LLq\276\315\263\314\277\375\241`\276\313b\010\277R\253\023\276B\201\341\276/\252\364\276\225\274\030\277\360f\021\277;\340\343\2752\354B?\253\265\215\277\225V\026\275w|\245?K\242l?\247\256!?\236\270\000\277|WD?\363\276\357\276\362,K\277v\210[\277L\353\227>\234\231\364>\223\025\263>\332\247\207\276R~\313\276\216\212\300>\024{\020\300\357\023.\277\213\322<\277d\020\304\273W+\017\276i-\254\274\027\224\253\275\257M\023?u\372\336>S\364$\277g\362\350\276H\n\243?(\326\233\276\023\205w?\333\255\345\277?\274\362?U\334\031?u+\317?\0359\226=\010V\034\277\355<\304>\270\312+?\177\357m\277e,\200\276\210\242%\277\005\223\034\277e\270V?\230\3404?3k\251\277\222T&?\306\332c\300\021u\315\277\214R\311\277\022\035\230\277\324\207D?\316\3220?\365\275\217\277Y\342E?\203\253\370\277\246\312\031?az\210?\355\351\n\300\256\234y?\036\224\201\277\001id\276K\335\267?\302\035\262?\223\010\"\277\311\310\345\275nP/\276\035\277\'\277xB5?^8\345?+$\322>fQO\276\215\263\367\277\334H\230?\335\245\245\276\232_\366\277\307\370\177?xP\230?\3769\207\276B\355]\277~\016/>\250q\314?QlT\277\242\205\377>\264\266\223?\202\312\202\277S\n\253>\203\227J?\340\001s\277%L\374\276(<\231\276T5\217\277\026\2070\276\273)Q\277\223\245\034\277\200\240\036\277x\242\r>\233\354\004>\200\214\377\276l\300\270?\311\301T\277\352cH@\367\376\313?<rC\277\315T\306?\321\"}\277>\004\001@\275\265\025?\366\241\252\277\361}\374=\314\364\252\277\367\205\310\276\303\336\226\277^\016\270?C\246\306\276Q\372\311?-O\363\276\255q0>`\376\003?\315\267]=\302\0267?\272:\305\277:\302\"@\267\022->mm\026\277\344\301\313\277\3011\265>\245\371\226\277)f\317? ^\270\277\032\273\364\276\265\315\022\277\334\023\352\276\233\365e?r\210\267\276\033\006t?\024\277\367\275b\334\375\277i=\351\275L\210=\277\307\026\204\276%\242\214\277\254\2340\277\022\031\215\277\367\321d?\027QT\275v\363\374?h*\007\300\027\206\315:\200\323\201>8\010\300?\226h\254?\204^\264? \2060\277\277bJ\277\331\271\010\276o\335\030\277^oo>\3210\257\277\022^\211?v\374\226\276c\014\376?/,\005\300G&L?v\245\032\277\237\254\376>>\315\014\276\300\2459>#~\375>a\330\253\276\371_K<u\325\266\275\327\335\032\277\323V\006\277\300\275a\276`\264n\276\206=\324>fD\207=mh\240\276\326\021\211\276>O\200\277\2229\357\276\025\334\300\275U\000\260\276\257L\006@\2550$\276\325C\304?\274\230x\277p\273\223?m\227\337?\313\303i>w\262\245?\264\277[?\004\331f\277s\334\227\276\026\334\277?\253I!\277\031\234l\276\265\026\237\277o\004\224>V\000C\277\364\214]\277[\300\033\2778a\266?\234\341\313\276\257\236\341>^\255\215?\254\203}>oh\274\277\'Us?k\332w?\221\322]\277a\037\203?^\212\272\276\355\252v\277\354=%\277\215`\221=\266\226/>M\351\242\277G\013\030?\214\327\265>+\\8\277T\320\224\276p\020\223\277 \354\370\276\315\351\036\277SLj\277\r\256\321?Q\200/\277\300\263\310\277\003?\200?bT\217>YM\002\276\222\346(?\014\316\277\276\221J\223>\343`\207?\262\304\016?\263\032>?\360\252\225?\026_\021\300\205\345\227\277\331y\"\277\375\230\376>\010z{\274{\006\212\277R\323L\276\352\242\t\276\374\036<\276\254\010\324\277\372\253\221\275*\014\260>X\3665\276\321\3740@\350\367\312>PY\324?zu\026\277\010[8\276\247\032\212\277\262\232\330\277]\340\372>\255J\215\277N3S?|\251\357\276\233\237\024\300\003v|\277\373\304\003\300!%\312\277\034\030\371?\r\367\241\277\267t\364\275\025\301i?\031\314\356\277n\371\250?h\324\201?\230\342[?\002\027\226\277_(\020\277\315f\306?a4\305>K\002\234\2776fL>\026\321\202<\021\325\270??\224\254>\214I3?\303\203\210?\333\321k?M\323}\277f}\271\277:\201\245\276\345\353{?\275\030w\277\025\316\310\277O\254\014@\232\366\023\277\023\2330\277\034\313\244\277\027y)\277\271\310\344\276\243/\203\277v\243n>?d\340>\312\313\016@`3\355>\\\034\261>l\360\254?8rF;-g%?\201\355K\277}>x\275\245\t\022@\205L\355\277\215\026\220?\215d ?*\335\323=\272(E?\253|\331\276\233\213z?\366\333\323?\262\234\222>am\004\300;w\325>\277d2?%\323\333\276\353\271\223?Y\350\023?\343v\023@#b\351\276\341_D?m\036\342?\254\217\240?s\241r?_\273P\277\t\234\304>\367\377\304<\'\377\017\277\032\010a>OR\210\277\000N\211?\035\023\004@\031\261s\277\364\316c\277}\320\324\277\306\234\257?\323\272\206?\026zO\277\276\247\264?\274\030\257?\315\223\364\276\373F\024=.>\004\277\371\306g\276\350\001\312\275A\266}\276a\303\024\300P\001f?\0171#\276P\234\024\277\316mt\277<\350B\277\207\337\204\274\027\252\220>\314\356\020?;\334\010@\346\217{?\007%\024>ll\347=.\227\t\277\265\212\266??^\323\2765\312\007@\027:\202\276N:\211\277\206\345c?\247\345!\277\020\222\333?\007\263\305\277\221\326P>W\202\242?\"\231\024>\224\005Q;v\332\007@\261\037{?\301\247\353=\'\215\216\277\214\316\301?\030\237i?\001\307\226<^n\033\277\n\336\007@\322\232\364\275\376\217\213?i\306\203\277\310\214\204\274\037\301\r?6\201\365?\226G~\277\224\222\302>!\327\343?m\346.\276/m\335?\024\207\240\277\022\001M>\234\245\263?\025_\035\276\305\210\207\277\006\030\243\276\233;\014\300\267\027P?\275\2617>8\211\327\277_-8>\010\240\213?_\333\217>\356\323\376\277\234\312\310\276U\332\025\277\315~\206\277\236\206\274>\253\324\201?\3717\327\277\321\370\310>\227\221\256\277s\214\202\275\324)=?;\034\265\275\007\370\223\2770\325\301\276#\276\227?\020\256s?\367\010\022\276\001-\203?\357p\346>n\302 \277\2158\000?s;h?eUM=\212\255\244\276\234T\342\277;\247\365>\374\217V<o\324\216\277\300FA?\255\030U\276H\200E\274Gup?l\177\251>&vV?y\352\251=\030y\300\273\320\236(?Fy\200\277\301_i?\352\2145?\266k\307\276\252n%?\257\226\230\275\375\004f\277\006\256\222\277[\266\327?34\000\277\237\332U\276#\347I\277;p\207?\304\326\320\276\3219\232?\333D\250>fA<\277N\311\216\277T~g>3\223u>?\3653\277\035p$\277M\241{?\205]\\\276g\301\243?L\243\325<\3534\321>\370[_\277A;\230>N?\233?\320\035$\275\364\262\236>\003\303:\277\360\326\010\3004\213\253\277\022w>\277:\343U?\264p\351\275\271\320&\277L\377\013@\333*\242?\216\323<?4BJ\277\001\334\220?\024\373f?\310w\007\276\250\211\273?d\327X?\256\317\337\275\222\333:?\227U\330>\327\364\356\277\215/O?\227\354\031\277r\210x?\2745\214?\301d\362>\240\257\226\275\212iH?\226\020\245?\223\315\256\276\246\276i\275\372\027\223\276\020?\371?\245\301\365>\333b\233\276\344\253U\276L\tL\277\037\025\235\276-\346\230\277\303[\200\277\013D)@y\354\205\277\3538\020?D\247\275\277\217A\215?\333\337\276\2778\232\220?\'\340=?x\226\255>}\246\341>\271\007z\277U\314]?\024\357\370>\375gF\276}\023\301\277)v\000?z\337\374\276\265\274\272>Zt\316=\226\325N\277,\3634\276\225\310\311=\271\330\257\276%\001\337\276G\253\242\276\343\334$\276\004_\201?\267\307\031@\225\333\373>\024T\020?\034`\216\277\217\251$>\222H\370\276\371\231\227?>\"\262?@\006\366\276R1V?\\-\366\275\205Q\262\276\023\001\037\277\346\256\243\276\037\231\236?N\276w\2778\346B?\311.m?\315m\202>\267j\320\276EJ\001\300\201x!\277N\rA?\263?\266\276l\257\216?\223~\345?e\232\220?$\252T\277\214s\314=\316\230 \275\275\260=?\3727\371>\237\022\256?^\346\347\276UKe>\341\340#\277\273\251\341\276dr\014?\315o\315>\274\254%@\027\244\340=Z\001P\276\336b\211\273\"\023\266\2762\014\010@Q\033#@\200\'N\275\214y\361\275\373=\300\277\337\327\'\277t\311\252>\270{\177\277e^\210>k\204\230>}\264\323\276\327t\232\277\307\001\022\277W\013\241\276\272\355H=\037p!\277\314\303\022?\225\217\002?\240\221\r\276\020vX\277l\302\303\277\250\314\332>\037\3456\277\'\324\365\273\202\346\235?\256b\342>N\325\036>b(\205\277\231\303/?\331\364\257>\242\225\336\277\013\335\302\277\262\333\'=\267S\237<\002\260\276?\335\026z\277^\206e>\304jE?OJD?+\350\372>\314\361\257\275_\322\256?\364\242\200\277\336\310<=1PA>B\027\270\276\351Q\233?\201YF?\232!\020\277+\266W?[;\007\277\2417\255>\232\007\022?\322\304\340<\252\001w\277Ar\277\274JM]>/\177A\277\034\3219?\303\204x\277\275`\203\277\003z\362>[\330\304?\242m\250\277\201\034\321\276s]\022?\221A\223\276\217\207\312\277\350\001,\276_J\332\277,\013&?K8\202\277]T\241\277\201k\333>\257\242\255>\312\267\220>\270\371f>\n\354^\277m\315\232\275\201\026\205?\274D\352?$\2618\277\236T\016@\314}\240?U\270\226?;\362\216?z\207\260>\337\2126\2776?\206>\356\021\005\300\000\311\345\276Y\361\317\276kO\207?9s#?TW\360\277\312\225N\276\207% \300\335\360\334?\237E\236\2771\215l\277~\362\202?\337Z\207?\3777^>9V\005\277\332>\217\275\006\003\220\277\007\302K\277\252\2047?\000/\271>\006Rs\276\341\3740?e\230(\2778\320\270\277\\\270\\?a(\310?>\222\370=\2038\024>1\\y\275\224\275H;\227]\366\277\224\023\223\277\000\365*\277\203R\204?L\304\036\276\207\233\034>\354\223h\277\325a\270\277j\247\004\277\361\345\\\277\306\275\316\277Z\316\375\277F;w?\322\304\317>\216\3038\277S6S?\312t\217>\002\272\037>\252\260,\276\0318U\277\215Z:?\315\332\315\277\245\267\323=\225H\026=\256\347s?\360\240\331\276\301\360\317\275\336\321\323>\232\225\317\277h6\036\277\251R\265?\026\377\001@\006\210\222?j4\270\273\250|\331=\002-M\275\262\254U\277G\260\373>T\237\313\277\217\362\373>\243W\237\277k\333h\277\232\037\340\276I\004\270>,\203R\277\203n\225>\332\211\271\277\362\225@?\344\337\273>Hl\303?F\217\260\275<\242L\276Y\237\245\277\323\007\240\277\222d\273?*\2260\277\335\002\244?Z\256\276\277A0\256?\232)8?Y4\014?\034\342*?\355n)@\243\370\203\277\311\375\033@\365Y$\277\024\255\177\277\364Hq\277\230\177\211?\3278i=a\022\273>\303\235x?6-[?%>p?\326\302\n\277\222\n@\277\355\312G\277\317\267\220?t\204\225?)\3258?\007\r\203\275\026\256\272?6\200P\277\336\254\336>c\020\204?Q8\306\277\3779x\277\355\254==\342=\004?\223\205\351?=\235\314\276PT\360?,\203\031?9fi?dG\267\276#\034\261\275K\273\004?\205\262\001?wQ\244=\340\n\301?\3777\200\277\272 c?5\242K?\007\363\014\276\030\003\214?\034~\250\276\277*\\\277E\335\024?\022!7?)\027\233\276w\247\324?\375\214\222\277\356{*?g\254-?\310\212\365\277\016\301$\275\017+\200?zrf\277f\2660?hL\222\277\331\200\302\277y\t<\275g\007\024?\274\326h\276\233]\326?\231Q\216\277K\235\256\276)\2154\277\263o6\277k\344\357\275\312_\026\277\027E\312=\204\204\362\275/?\241\277`\232c\277\307\333\205\2779\355\265?S\223E>x\314*?-\234\253>>|\234\276\200\232\007?\332@Q?\275s\303?\026\355\235?vWM\277,\343\247\277i1&\276!v\346?=\017B\277w\260\233\277\374\3052?\223\252=\276$\336\022?\316v\241\277\0008O\277@\204\024?\0375:\276\365\263\210\277\343\351\205>\350\375\033\276\2303/\277+\0361=\336z\r\3009\277\017?\207\265\321\275|\001+\275\016O\t>9\263\030\277\022E\305?\340\345\025\275\272BL?i{\224=\202|\356\276\022H\320\274}X\000>\304?\372>\371\211\307>\256\233>\276v\334\354?i\372\031>\032/!>\235\260\367?\340\361f=b\341\233\277\327\366M>\234\371D\276\277\363\223\277\242\244Z>\005\310\024?\313\030c\274\225\327\300=\225\241\353\2774G5?|\006]\277\326y\316\277\3474\377>\323\025\257\276\242\271F\277}\202K>\345\323\251\276\014\rt?YH\007?.\201\"=\252VD\277\252\246\313>\0245\200\276\203\344\302\276#e!?,I!?E\236-?\203\031\312\2771\271\024\277C\231D\273\341=\245=\353s\251\277\317\206>?\020\262\212\277\232\334\260\275\037\014B\277\376\002/\277\3720\311\276tv#@\320\237D\277Q~4\300F\217\331?\344B\023?\223\306\224\276\253\200\202\277\031\230\267?u\n\374>\037(\313\276\331\337(\276\304\2217\277ru\016\277\034\334\362>\377\205\211\276s\212\025\277\335\337\213>\344N\335>\203\366\347\275MD\313\277-@\236?Hb&\277\r\270\004@\026\271\334\277F\267p\277s\004\367>\332\316\233?_~\021?:\276\\\275\251\036\001?x6\260>\262\230->\020\023\275?\212\n\377\276\\\345\002?7g\365\274G\216h\276\274\031\334>C\332M\277\331\216\001?\372\215\252\276?\232\265\276u\207\201>d\224[?O\025\311?\347\005\241? `\216\277\"D\230\277\"\321\223>\211\310J?=U >\317\021(?\245\236\222\277\374\216\034\277N\036\247\2770\001\352>{O\022\300_\177\235>\265\320\200\277\345\245\363\277\370\216\266\277=\241\217>t\001\026?@\362\361\276\311\030\367\277M\263\025\276\r\'\237?\333r\222\275\332\244\342\276\220\367\335?\326\031K\2762\237\023\277\0022\342\277&R\356\276\344\342\243?\203+X\276\001\023\026\277\0359\312\276$\264Y\276\351\206J\277\306B:??F\333\276o\326\225?\353\231\220\277SA\270\275\005\216l>\177l\014\300\216\254\200\277\"\006\001?t\000\234\277\224\342$?~\262\000?\365\304\035?\263\235\220\276V\342\341?W\216B?\326\\\313\2763T\\\277\020\241z?\223\021\013\277lo-\300\315.\335>\324\266\223?\215wf\277\320\273\007>\230F\223?\355\357\207?\312\010E\275\277\337\231?\345\353\261\277\275\036\226\277\343\2378?[\276\036\2764\236\220\276\2236\300\276J\267\305?\004\000\337\274\247|w>\250\020r\276\231\311\253?E]\177\277,X\270?\221_\235\277\326;\207\277\241\031\275?\275\030\220?}\253\306\277\273\300\027>\005\327\304?\350\024\033?o\250e\277\t\224\345?\214J\r\300=\004\343?\351\363@?\271h\206>\352u%\277\025K4\276\225\000\025>\363\207\310?\360p\001\300-\257\016>f\306\230?\336\315\211\276\314v)?\237F\221>\246\236\336?\006I\351=\326\003\022?\323\242\225\277\256\346\211\277pX\350\276U\217\030?\023\227l?\367\330\330\277\340\333\316\276\244,\247?b\221\270\277.\342*?z\035\026?n\354\030\277\201\357\004\277e\235\025>\340\304\360>\036\324\343>\355s\267><(9?|u!\276\270\366\315\277\207_\013@\002\367\026\277\246i\027=Qo\331?\222=\336\277\034\337\r=\"N\360>\326^\233\277\240\210\r?Y\323\310?\314\006\272\277\013\2561\277]\362\373><\207\251\276\002i\367\277l\343\270?\342l\033?\007fY>Jm\276\275h\350\207?^\022D\277\331\246\316>\320AX;h\212\271=\274C\310\277Q^\320\276\330A\023?\307\274\347?\230\336\265\277\014\276&\277\214n\317\277\016\247.?\315\301\252\276\3152V?38\021\277\356\'B\275\230s\177\276\003S\216\277x\262,>\254\261\231?\264D\227?\262\224\360\276\371\244\231\276\341Yc\277\331Q<?c/\n\277X\025\261=\257Eb\2748\250\203?J\016\344\277\217\037:\277\004\342\312?\023\210/?i^b\277\226\212\301=\206\224\020\277\353\034\005\300\341\335\354\276\363!O\277@\212\'\277\324q\302?\234\271\207?=\265G@\210O\005?\007T`>\255\2050>\250\332\267\277g\017\230<#\300\352\277c\217V?ZZ\213?\307 \316?\240\037\226>N\014\303\277iz\217?|\222\205?\215\241\273\275\315%\257?(}\222?^\017]\277\006\363\316\2765<\275\277\300\277\346>Rxj?\336\262\261?\234r\355=\026\024\337>:\237\277>\205x#>\252\372\330=!h\023?s\n@?R\025;?\351\211\203?\025\320\355=\303X\313\275\243*\221>\326F\237>\331\333\204?\013,\022\276\307t\226?\350\313\245;1\216\201?9\n\027\277Y\200\270?\255\203\350\2752\210#>\362g:>\010\327\306\277\230\335G\276)\"\311\276|\302\250\277\374F^?LG\302\277\212Tb?\237N\350?\300\316\374?Sx\023\277l@[?.\242.\277d\317#>K\214\224?\r\022\210?)\256\201\276\333j\332?j%\027\300\321\313\332\275\244\307\346\276\001\213w<\353\227\001@\2309\375?\372\344\021@ \363\272\277\001\'q?e\366\304\277\377\352\204\277B\363\205\276WW[?_\317\262\276\225\350\340\277\351\014\201\277\240\377\022\277\364x\376?\331Da\277k\017\240?\352\241\227\277]H\202>\245\030\037\276\034\334\255\276Qo4\277f?\203\277:\277\257?\341\2544?\253$\217<\365\365\033@\004\3657\277\252\341\005?/\213\245\277\376\"\200\276\206\341=\277\246{W\277V%<\277I\267\305\277IJN?<\354\227>J\t\200\277\303\351\002?\244\252\243?)\243\255?m\017\027@\315^h\276L<\206?\307f\221\277us\270>\023\021p?\325O\357\2775\347\325>\316[\233?m\244C?\212nB?\231)\234>g\206X\276\017\037\256\276\216?\335?\022\205r>$\373\344\277\370n\240\277\376\300E?\236\240\033\277oZ\245>\301o\212\275\023\337\275\277>\332\010=\330\373&\276Wh\233>\234\324\233\277S\244\355\277\001\037Y\276\036\\\203?\371\350\003\277\331MA\277\353A\r\277V\277\036\277\034\207Y\277\375\260I?)0\314\275\003\007\210\274\351)\313\277l\301\225?W\370\030\277\246\022\271=\246\261L\273\312\337\242\277\375\346\245\277jb\224?\273\322\312?f3\375>\270[\244?\357@\016\300\266A\250?\327C(\276\022\260\326\276\236\036X?:4\262\277\375\017}\277\3317\372\276\203\365\"\300i\371\316\277\177|+?\221\003\260>\352\332a?\330\372r\277\361h \276\230\337\342>!\334\366>`\335$@\016F\215?O\304:?\355\275&?\247\334G?C\257@\277\233\336\310\277\240\375m\277\010e\223\276\324\365\354>}\037\265\277\254\263\036\275\350\246\263\277\257K:\276\010\326\357<\211\271\212>\001#c?N\017\252>\320!\255?<\263\234?3\316\271\276\240\232\366={\207\220\277\325\261s?\262\027\374>\231\300\310>l\'\302\275\0057b?\274\025{\276\306\177\014>/\336\004\277\376hg\275\267\'!\300q\307\316\276\\5\226\277\260/->_\016\n?6U\221?\006\215\034?\365\310K?+\020\336>\302\362\000?c\2436\277\263\310\372>U\245\022>\027K\233\277\203\303\236?\001\000\232>\344)\227>\014\002\241\277\206\311\304>\177E\024?\271\340F\275^\326\270?\\\203\267\276p\3728\277\223@+\277\300\226\225>\340\334\243>\035\343\376=\034\322\225\276\363\216\273=e\'\003>\363o\210\277t\3540?\025\306\274?\376\032\315?\256\223\002?u\272\027@\277\332p?\361\364\031\276\'n\010@\360\"\237\276\266/\t\277\201\350\304=&\250$\276\250\267\307\276\'&\243\276\3120\313\276\2113\374\2779O^\300F\236\032\300q\202B\276;\025\303?\300\335\213\277!\372\313?B\036\352>\034\266[\277\021i\031>Q\232\374?\240+\230\277@\221H?\202\2051?\243\235\261\276<\222*\277!\001\342\277\2377\235\277\205\312\235\277O\233\201\275\334a\016?\225\357\014?\350]7?\243\336+\277T\327\026\274\304\226\320\277\317\226Q\277|\225\213?\233\234I\277w\010\014\300f$\014\277L\211y>\334\270\020?K\001\224>\211\222G\277\263\300\335\276\226|\350>\022\025\236\276\344\276\010\277X\373k?jw\331?\033\342h?\337t?>\226\346\026?Z\320\202?\237\242\226\275\206\251\331=y\2346?-\352\247\276.\216\336\276\233\356\231?\351Sa\275\364\342\267\277&\225#?\"\204\212\277)\034\035\300\201\327\261\276\004\326d\277y\034\"\275\252X\355>\263*\235\277!\2244\277\334k\263\275U\006\254<\203e\t?\'\205\342\277\3630\301\277l\276\236\275\330\351\311\276\243\226[\275\235H\037\277\267O\021?\3062y?qe\230\277\342p\300\274\ty3\277Y\003\274\276\036}\311=R\260\270>ANT\277\3562T?1\253\032?\336\016\366\276U\3777?2\310\307\277\242\277\240\277\306X\374?\'^\202\277A\276\266>\242\253\371=s,\304=\274\3529?#(\361\277\362&i=\340\332\010\300\nP\272=L\300\227\276\014yo>\207\216X\275p\007\242<\302\\\007\276\316\242\255>LG\255\277\310M\235?\024uY\277\376\n0\277\220\024\211\276\220\325\231\277\255\340*\277\025yk?\300^B\277\032F\273\276X1B\277\317\217r\275I\336\233?\225\227\027?V\360\245\276s\221\232\277,\261\215?\265B\030?\340\266\202\275G\013\265>-\342\230\277\033h_\2771jk\275\202\344o?\372^[\276In\016>\361U\'?i6\200=\224\3337\277\271D\253>\037\001\324?\001f\340;c\3036\277\234`W\276\266\343}\276\034\271t?}]\205?\275\021\235\276\210\036\n>\247\260\200?\244\317\222\275\014?\223\2775\226n\2774%\337?m\201E?kI\250\276\211\314r?\0378b\277\026X\246?\014DP\276\232q\004\2779\001\301?,\3603>\316\345\002@\220\341=\276\246?\004?\t\221C\277\267\342\t\300\017\224\003@#$\225\277\225^\r\300;\221j?\027 \271>7\225\326\276\331\303\014@\323\303\273?\261`z\275\"\223d?\255\3543?_J\254\276\000\243!\27788\316\277^\277\230\2778\311\003\277u\272!?\0273g\275k\246\262<\301\303\300>Sl\344>\200\350\332\276\355\354\330\277\277\227u\277\254\302\262>\236\362F\277\034\246\260\276\251\375\334?K\212\230?4\201\320\276_\324%?\301\2662\276A\310\244\276$L\007>\352\'\023?/N\340>\200\n9\275\246\322[\277\351@\200\276K\204\203\277\266\323\320\276\025, \277\362\350\037?!S\203?G\\1?\031\373\257?\\5\244\277\001\232\013\276\013\"o>\341w]?\034V\266\274C\333\260\276\272@\"?\010\365r\277^\274\010\276R`\020\277\0035\212?\354p\303\277\031\1779\277Y\347\265?\343\306 \277\234[\333\276?\337\370\275\256\371~\276\312WP\277\265\246C?\243GG>\3039\215?\275\t\206\276\022\336\212?\235*\304\277VY]?\253\277\310\275<\300x\277\223\324J\277P\022\261\276\332q\275>a\037^\277\2070\265>\225\316\260\276\361&K\277\306\350??P\032\363\276\325\2624>\301U\001\277\201\330\245?sF\345\277\202\377\"\275\271\327L\277\343\303\200\277\223\014\022\2771Y\374\276\254\273\306\277\246\036v\276;\257\313\277\307>4\300\362t\001?s\307F?pR\360\276\374\002\036>\341\025\221?{\350\316\276V\'\276=n\310\313\275\233\"\233\277r\367\354\276N~\002?\206(\310\277\263\256P\277i\354\224?`\367\220\276\270\322\216\276\217%\303?\215%\274\276\300\007\330\2776\233W\277\037\326\027\277@/\304>\216\303\320\276E\325\'?\t\025\362\277\360\326\215?\025\367*>}\347\212<\331\361_?\034W\257?b\031\253=Ol\277\277\266\010J\277ZX\352\276=\2273?\241V!?\004\235z?\317\373>?C\214\341>\224\032s?P\336\220\277\306\250\276=\222\217\301>d\0037\277c\272\n@)\312\025\277X\333o\276}\331\375?\335\232\223=\3126\232\274\366\226\210\274\261\016!>\231\302\010\300\323Cp?\352x\352<\231\005\242?\275n&\300\215\350\214\277\2259\001?\275\253\233<\224\240\024\277\236\205X\277\276[\241?\212\026\300\277q\002\204?Y\263\022\277\311\361\255\277%\241\241\277T\022\325<;,7\277\221\365&?ey\227<\331|\013\276G\232*\277\336\332\202\277\001\231\201\277\013\003\344=~H\343>\375m\241?\310\340\220\276F\347\241>]X\337?FL\006?\032\'\202?\366VI?\220P\346\276\322\240\023?\340vg?\374S\200=\220Q\316?\264\030\324>^R\003\277\025\005\210\277\241cR\274\202\252\322>\362|\006?\222t\234>\002\252\235\277\361\344\323\2775]\265>\212\211\224\277;\266\226?\365\220\350\277xyJ\277\307\244\021@%)F\275\342\230k\275\245%\310>\276\242Y=\234\217\363?\3661\026=3\213^?*\332R=\352\320\003\277\253\010Q?\\-\313?c\013\226\276\303\373\300\277G&\225\277\254\372\325?$\013\215\277\234R\343\277x\333K?\232\315\245\277\035\347\243\277\343%\037>\235\t\321?\200\331\013?|h\002\300vK\037?\321\200@\277~\276\233?\337\344\242?\215\325\265?]\377\317>@\203\203\277\3649\357?\376\267/\277Wl|\277\025i\243\276\016IJ\276\226\372\027\277o\207\371>\351\373\330?nq\276\276\361\217;?7\231\250\277\354\270\311\277\302\362\342?uI\227\277\270\371v\277\215\210\231>m\371\241\277\371\213\267\274\003\364\030?]\262\224?\216.\353>\024\025\216\276]\026\354=H\"\254\276\205\225\215\277\270\212\367>\022hg?\342\323>>\231d\217>w\275K\275&\251\213\277u\276\031\300G\201\307?\177\316[?\005\261\222?\330V\317=\\\030M>\2073I\277\033O\205\276\367S\231>[\245\354?\375g,\277\240\0013\276\330\275\216?\372\345f\276\032$\213\276\002ne?\341\367\256\277\320u\333\276\006\207H\277\234\370\224\277E8\024>\003t\211?3FV?Bz\223\277\212\177\321\275\257E\314?P\263c\277\3475\027\277\177\n\004?\022\201=>>:\274>\221\253\231\277\340\334\"\277gC\304\276\210[\221?\212=\304?\2456\310?x\267\300\276\267\000\\?jT\324=ue\304>{\003\311>\005\263??\277\275\220=L\2754>\311u,?F\335R\277,\240\271?\217G\305>\023r\324?\202(\307\277\274J\213?-q\264?|\204\024?\207\302I\277\'\272\001\277v\323U?`\277\272?\014\217\024?z\016\277?\215\3728\277\311\'5\277h\2614\276\266\321\321\276w\260\207\276\2025\222?O8\246=\021\003\351?\034#\337\276\033\336\235>KM\\?\344\\\244\277<\033<?v\371\352\275\035\020\236>S \345\277(w\001=\2135\261=\2746\025>I\"\343?\321>\361=j&\'\277\333\203)?g\355\374>bn\306\277m\337`\276\347$\003?l\344\247?\"\332~>\n}\026?Qw\271>\362\221)?l\310\306\277\022\204\007@\242op\275\257\276>\277\355\353\226>\3534^\277r\037\210\277\376\030O\277\356|\003@\0301\362\277C-P=q\203?\277\312\024\350\276Z\260Y\276\254U8\277;\366\272>K\266\300=C\224C>,\210\266\277\017\310\266\277\275\252\310?\320G\231\275\250\357\222\276X\222\377>QE\t\300I\0214?N\241_>]\212\251\277l&\323>\314)\241?\267\250\004\276\010\311\"@zM\022@\277a\013\277f\216i>\300\360\201\277\301\267\235\2762\260\203?\206\346*?f\346\214\276He)?60\246>\231\246v?\360\327\006\277\206\n\317\277\326\223\365\276\267\304\301>V\257%\277\376d)@\0374\241? \330\255\277\324f\316?O\016\327\276\225<\256\277\363)\003\277I\376@\2779\245\357>\014\024e?L\366\253>\346C\277?\213\033~\277p.A?\315\261[\2772*\362\275\341\363&?ZXI?\177\342\233\277Dz[\277\201\222D\277<\316\351>\273\027\232\277\t\013C\277\367[\302\277>i\227\276\\|\023?\366q\357>\363}\215\277\243KH>1\002\020\277\'BV\275F\374\177\277\320\212\252\277HT\213\276\3430\217?@A=\277\215m\035?y%\016?_\031\342\274\300[\360?\303e\n@Za\203\277]L\003\277\320\357J?\\\255\257?}\034\352\277\252y\313?\230-\030\277{\007E>\370\240\037\277x,\272\276\367.\246\277jI\300>\207y\203\276\323\2609\276\2353\236?`\375\t\277\327\206\366>\277\017>\277\034\013\023\300\312lz?\2243G\277y\272<=4\204\312\277H\273\334>\010\373\372>\330\324\263\276\265/q>\263\201\224?\245\311\271?\025\036\341?k\377\357>Lk\227?~\023R\277\361cX\277\343\202S?\310,\253\277Rd\202\277\014I\205\276\306C\315\275\224\276D?\244\314\274?\312\301\251?e`o\276\363((?i\377\205>4\217\346\275\300\324\002?\346\261\342\277\352\342P?%\033\201\277\344\024C?6\350\345\2776\301\313\277F\306\330>AB\210=\271\240\254?y\246\355\277\352L\306\276\211\3034?\355\336\220?-\360\035\277\302w\016\277*\252\226?=\3271\277\343\342S\277)\3628?\237\375U?\377\330\345;\330\025\250?\324I0?\027l\237\277\227\004i?\035\026\200>\277\354\007\300\234r\377>0\034\220\277\325\314\003\274\333\207q?Su\330>\007\314\213\277!qO\277\262Fg\277\305\222\246=Y\341\023@\316.\220\276\304O\366>=\246\272>-\312\020\277F\007e\277x\246\246\277\260\227\373>\233w\210>\363tg\276H\332x\277m\271\275\276\264H\231\277\237\277\205\277r\016\255\277\242\211S\277\343%\036>\030|S?|\261-\300\271\250\316?\005o\037?\224j\316\277\317UR?\254X\221?qy|?\274X\270\277\335\032\007?\247%\254>\241\256+\300>l\356?Q\337\024\277\353\376\017\277\204*N@\356\002S>2\225\n=\036s\007?\350\227\030?\314I\016@$\230k>\024\022\302\276\321\311\017\277\200\374,\277\302\202\375\276Y\373@>\223d\243\277\031E\265>\376\262\\?7\300p?\315Jf\276\312_\220?\206N\365==\235n?\251\2034?\026\tq?\020\212\364>\223\t\352?.^w\277JG\320>\321\2618=\207U\311?\211q\222?~\203\242?\244c\332\276Eg\245>\027A\352\276\243\3532?\204*\340>\"\270\335\277\024\r]\277\266l\306>\304F\215\275\303>\312\275\003e\241\277U\336\032\2776<\234\277D_\236>.>\232\276\210 \320>\217}\013@\377Q\345=,